<unk>	0
<s>	0
</s>	0
▁п	-0
▁в	-1
ов	-2
ст	-3
ра	-4
ли	-5
на	-6
▁с	-7
ни	-8
▁о	-9
ре	-10
ро	-11
ск	-12
▁по	-13
за	-14
ла	-15
ер	-16
▁на	-17
ен	-18
но	-19
ри	-20
го	-21
▁и	-22
ка	-23
ле	-24
▁д	-25
си	-26
та	-27
ко	-28
ль	-29
▁за	-30
ти	-31
ны	-32
ва	-33
не	-34
▁В	-35
▁м	-36
▁«	-37
ло	-38
▁С	-39
те	-40
▁у	-41
▁П	-42
ть	-43
ви	-44
сси	-45
▁Р	-46
да	-47
ова	-48
▁б	-49
▁К	-50
то	-51
де	-52
ски	-53
▁М	-54
ки	-55
▁от	-56
ци	-57
ру	-58
▁ра	-59
ми	-60
ско	-61
▁Ро	-62
▁об	-63
во	-64
ста	-65
ся	-66
че	-67
ил	-68
ве	-69
▁а	-70
мо	-71
ма	-72
ин	-73
▁про	-74
▁Росси	-75
ор	-76
ку	-77
ди	-78
ени	-79
па	-80
▁со	-81
сти	-82
▁из	-83
▁при	-84
ля	-85
▁во	-86
▁Н	-87
▁пре	-88
▁т	-89
га	-90
▁до	-91
▁вы	-92
▁к	-93
ры	-94
▁Д	-95
чи	-96
▁ко	-97
жи	-98
▁У	-99
ров	-100
▁Б	-101
ши	-102
бо	-103
сь	-104
нов	-105
ну	-106
▁А	-107
по	-108
ет	-109
▁Т	-110
ду	-111
ча	-112
кра	-113
▁г	-114
би	-115
▁Г	-116
▁ро	-117
ей	-118
до	-119
ска	-120
ем	-121
ан	-122
▁ре	-123
▁ф	-124
лу	-125
ков	-126
ной	-127
ере	-128
пи	-129
▁О	-130
са	-131
зва	-132
ке	-133
▁России	-134
зи	-135
▁не	-136
▁По	-137
ния	-138
▁го	-139
ев	-140
▁под	-141
ар	-142
пу	-143
щи	-144
об	-145
ше	-146
ги	-147
▁И	-148
сто	-149
ский	-150
жа	-151
рова	-152
нии	-153
ты	-154
ный	-155
ур	-156
ме	-157
се	-158
ных	-159
он	-160
ции	-161
мер	-162
▁де	-163
▁росси	-164
тов	-165
ние	-166
▁На	-167
лся	-168
ного	-169
хо	-170
ского	-171
▁пред	-172
▁рас	-173
каза	-174
ту	-175
▁Л	-176
ба	-177
тель	-178
▁че	-179
му	-180
лов	-181
▁Мо	-182
▁Укра	-183
ских	-184
вы	-185
мен	-186
дер	-187
▁бо	-188
▁раз	-189
ской	-190
ран	-191
▁ма	-192
▁пере	-193
▁Ф	-194
бе	-195
лю	-196
ные	-197
ек	-198
лей	-199
ША	-200
▁США	-201
▁э	-202
лись	-203
▁для	-204
су	-205
▁ка	-206
гра	-207
ские	-208
▁са	-209
▁пос	-210
▁назва	-211
▁мо	-212
яви	-213
сказа	-214
ды	-215
ден	-216
▁Ки	-217
▁россий	-218
про	-219
▁Пу	-220
▁ми	-221
▁Е	-222
ня	-223
▁Моск	-224
▁ру	-225
сть	-226
зна	-227
▁1	-228
со	-229
▁бе	-230
же	-231
▁Ч	-232
▁ста	-233
▁па	-234
ца	-235
▁Украи	-236
▁ш	-237
мы	-238
▁ме	-239
▁ст	-240
ую	-241
лет	-242
вши	-243
▁Пути	-244
ово	-245
пе	-246
▁рассказа	-247
▁З	-248
▁воз	-249
пре	-250
тер	-251
ном	-252
▁се	-253
▁Ка	-254
▁нов	-255
ут	-256
▁предло	-257
фи	-258
▁2	-259
илли	-260
ян	-261
уд	-262
шени	-263
вер	-264
она	-265
▁милли	-266
▁ви	-267
жен	-268
цен	-269
кан	-270
ств	-271
ство	-272
енко	-273
лась	-274
▁те	-275
ную	-276
ности	-277
стре	-278
▁ли	-279
тив	-280
ха	-281
ком	-282
ят	-283
ным	-284
мери	-285
лен	-286
▁ин	-287
рии	-288
рам	-289
зо	-290
▁Ма	-291
цию	-292
ском	-293
сп	-294
бор	-295
зда	-296
▁объ	-297
▁кон	-298
▁дол	-299
ника	-300
ща	-301
▁сооб	-302
ства	-303
бу	-304
▁е	-305
стра	-306
ге	-307
▁Си	-308
▁отказа	-309
ря	-310
ник	-311
рем	-312
жени	-313
▁после	-314
це	-315
сту	-316
тор	-317
сков	-318
рав	-319
шего	-320
тре	-321
сс	-322
▁поли	-323
▁руб	-324
рави	-325
цы	-326
▁За	-327
анк	-328
мерикан	-329
ников	-330
мпи	-331
▁Ш	-332
▁сво	-333
лы	-334
ться	-335
ос	-336
▁Х	-337
стов	-338
ция	-339
держа	-340
ще	-341
чен	-342
бы	-343
▁вз	-344
▁назвал	-345
ласти	-346
▁фи	-347
стро	-348
тра	-349
▁обви	-350
▁Трам	-351
▁Са	-352
ву	-353
▁полу	-354
зы	-355
ша	-356
жили	-357
▁укра	-358
▁рассказал	-359
гро	-360
вший	-361
МИ	-362
▁тре	-363
▁Ра	-364
▁СМИ	-365
хи	-366
гу	-367
тан	-368
▁Москве	-369
▁челов	-370
ская	-371
став	-372
бли	-373
▁Путин	-374
ная	-375
▁Ко	-376
▁само	-377
▁му	-378
вто	-379
▁Э	-380
01	-381
щени	-382
▁Во	-383
цев	-384
▁си	-385
вшего	-386
▁Россия	-387
▁долла	-388
▁Кры	-389
ное	-390
пы	-391
ность	-392
кой	-393
▁ту	-394
пер	-395
▁гла	-396
▁жи	-397
▁Ц	-398
▁уби	-399
▁рублей	-400
стави	-401
▁Ми	-402
дов	-403
зиден	-404
▁пер	-405
аль	-406
кова	-407
▁Ж	-408
том	-409
▁ди	-410
телей	-411
нил	-412
кры	-413
▁су	-414
▁нача	-415
утбо	-416
гов	-417
▁ку	-418
шли	-419
▁Я	-420
▁заяви	-421
нили	-422
▁Россий	-423
гла	-424
ину	-425
теля	-426
ые	-427
из	-428
▁виде	-429
▁ч	-430
▁пров	-431
▁вер	-432
вро	-433
ью	-434
▁Украины	-435
▁Па	-436
ствен	-437
зд	-438
ний	-439
▁запре	-440
ыся	-441
цу	-442
шенко	-443
▁пла	-444
ый	-445
▁A	-446
пор	-447
ых	-448
ери	-449
er	-450
ерб	-451
ой	-452
лек	-453
▁поги	-454
▁против	-455
пла	-456
▁тыся	-457
стви	-458
▁я	-459
ром	-460
лова	-461
▁видео	-462
жил	-463
▁Со	-464
▁авто	-465
чил	-466
▁ба	-467
▁ки	-468
00	-469
▁долларов	-470
яс	-471
▁Евро	-472
обе	-473
▁украин	-474
ья	-475
▁з	-476
ман	-477
ровал	-478
▁призна	-479
▁воен	-480
▁га	-481
▁ве	-482
онов	-483
▁созда	-484
▁задержа	-485
-2	-486
▁но	-487
тай	-488
▁сообщи	-489
шел	-490
▁ком	-491
ровали	-492
виа	-493
▁Мин	-494
тили	-495
▁жен	-496
▁футбо	-497
руп	-498
пас	-499
▁без	-500
▁ле	-501
▁Ме	-502
▁гра	-503
вя	-504
▁года	-505
ским	-506
лан	-507
▁Бе	-508
▁Сирии	-509
овали	-510
▁Назва	-511
ления	-512
ом	-513
ники	-514
ье	-515
мени	-516
зе	-517
стве	-518
le	-519
▁ак	-520
спо	-521
вать	-522
тели	-523
рошенко	-524
▁ж	-525
сса	-526
рен	-527
скую	-528
▁ча	-529
доз	-530
▁оп	-531
обеща	-532
бра	-533
рест	-534
▁рабо	-535
▁россиян	-536
▁пообеща	-537
▁Порошенко	-538
пута	-539
▁Тур	-540
▁помо	-541
▁хо	-542
▁сто	-543
▁Бо	-544
▁сбор	-545
▁S	-546
цей	-547
▁Гос	-548
▁пи	-549
▁призва	-550
▁цен	-551
станов	-552
on	-553
кон	-554
▁предложили	-555
▁да	-556
▁Гла	-557
рак	-558
тали	-559
зу	-560
▁убий	-561
сла	-562
▁Под	-563
▁суд	-564
зова	-565
ней	-566
▁российских	-567
▁назвали	-568
▁Украине	-569
руд	-570
▁чемпи	-571
дили	-572
сов	-573
▁прода	-574
пусти	-575
кла	-576
▁человек	-577
дения	-578
▁пу	-579
тора	-580
ева	-581
▁До	-582
сты	-583
▁санк	-584
овал	-585
фе	-586
▁тысяч	-587
нию	-588
▁Ли	-589
сы	-590
▁сообщили	-591
уб	-592
▁миллиар	-593
▁бы	-594
▁нашли	-595
лед	-596
ске	-597
род	-598
ссе	-599
▁американ	-600
фор	-601
▁3	-602
гово	-603
▁стра	-604
нали	-605
ступ	-606
▁объяс	-607
▁B	-608
▁Де	-609
▁G	-610
▁T	-611
нец	-612
ление	-613
▁Россию	-614
овет	-615
▁предложил	-616
треб	-617
ерт	-618
ган	-619
▁показа	-620
▁президен	-621
ене	-622
▁лю	-623
▁пов	-624
▁авиа	-625
▁уча	-626
▁M	-627
нес	-628
рь	-629
нет	-630
вра	-631
▁сек	-632
три	-633
ющи	-634
▁ги	-635
дил	-636
тро	-637
▁лет	-638
шил	-639
ак	-640
▁F	-641
тей	-642
▁арест	-643
рек	-644
ках	-645
дар	-646
▁то	-647
мож	-648
тил	-649
ритан	-650
▁попа	-651
▁Про	-652
ого	-653
яв	-654
вой	-655
▁пе	-656
инов	-657
ербур	-658
етербур	-659
▁пар	-660
▁Трампа	-661
▁Путина	-662
an	-663
ях	-664
дели	-665
▁C	-666
вые	-667
▁Та	-668
▁эк	-669
ять	-670
▁При	-671
ень	-672
бил	-673
держ	-674
▁вой	-675
лось	-676
▁Ин	-677
ными	-678
▁201	-679
in	-680
▁пожа	-681
лета	-682
дума	-683
нер	-684
▁мат	-685
скры	-686
▁ар	-687
рил	-688
▁ев	-689
▁мира	-690
▁шко	-691
▁миллионов	-692
▁бу	-693
▁области	-694
▁самы	-695
▁ос	-696
▁Американ	-697
тин	-698
ций	-699
ат	-700
тить	-701
▁Пре	-702
▁тури	-703
нал	-704
▁би	-705
чили	-706
▁отве	-707
▁тер	-708
москов	-709
сте	-710
лом	-711
▁смер	-712
вш	-713
труд	-714
▁попро	-715
▁ИГ	-716
▁рассказали	-717
▁Ба	-718
▁сня	-719
▁узна	-720
ремя	-721
ками	-722
НР	-723
рили	-724
твер	-725
роны	-726
▁побе	-727
oo	-728
▁объяви	-729
▁х	-730
пуст	-731
нова	-732
▁погиб	-733
▁Дон	-734
▁попы	-735
▁над	-736
зов	-737
▁сборной	-738
▁заявил	-739
▁полицей	-740
гли	-741
еви	-742
▁Фран	-743
дение	-744
сло	-745
▁отказался	-746
▁кра	-747
▁пол	-748
коно	-749
▁Ю	-750
▁Ту	-751
▁Донба	-752
вших	-753
вели	-754
лимпи	-755
▁Глава	-756
▁евро	-757
▁сети	-758
▁Из	-759
дом	-760
▁филь	-761
▁бан	-762
▁оказа	-763
рий	-764
эро	-765
▁Бы	-766
дет	-767
▁та	-768
▁5	-769
▁обна	-770
енси	-771
льзова	-772
▁ус	-773
▁сни	-774
▁Крем	-775
две	-776
▁неф	-777
▁Жи	-778
▁боль	-779
▁время	-780
▁4	-781
рабо	-782
пар	-783
▁потреб	-784
▁од	-785
кет	-786
▁свя	-787
кор	-788
жение	-789
вали	-790
▁попроси	-791
or	-792
рой	-793
-201	-794
или	-795
жду	-796
ar	-797
▁возмож	-798
▁бор	-799
шения	-800
лин	-801
пол	-802
▁фо	-803
▁пообещал	-804
▁Ар	-805
▁Госду	-806
рон	-807
▁Ан	-808
▁слу	-809
▁Не	-810
▁пра	-811
лот	-812
нах	-813
▁призвал	-814
▁сы	-815
шили	-816
▁взры	-817
▁Украин	-818
▁Подмосков	-819
▁отп	-820
▁терак	-821
смо	-822
дела	-823
шение	-824
▁P	-825
▁муж	-826
en	-827
▁ан	-828
спор	-829
▁прове	-830
▁напа	-831
▁ради	-832
урнали	-833
тии	-834
при	-835
▁откры	-836
еры	-837
▁его	-838
▁дву	-839
ровер	-840
▁задержали	-841
нам	-842
соб	-843
цени	-844
шении	-845
▁W	-846
кин	-847
дали	-848
▁Дж	-849
▁Ку	-850
▁Пе	-851
луч	-852
▁НА	-853
▁же	-854
цион	-855
▁Петербур	-856
рах	-857
тся	-858
рори	-859
менти	-860
нин	-861
чита	-862
▁прои	-863
▁боле	-864
жда	-865
▁два	-866
▁опровер	-867
ших	-868
ровать	-869
пера	-870
▁сро	-871
ce	-872
цки	-873
клю	-874
били	-875
▁чемпиона	-876
пустил	-877
нием	-878
▁глав	-879
вод	-880
вый	-881
ход	-882
еров	-883
нич	-884
▁Об	-885
кого	-886
▁ЕС	-887
хва	-888
▁все	-889
▁появи	-890
▁спо	-891
▁Ни	-892
▁оцени	-893
сом	-894
▁пенси	-895
дии	-896
▁Ве	-897
▁российского	-898
▁ла	-899
реди	-900
▁процен	-901
▁обо	-902
▁подро	-903
тия	-904
первые	-905
дей	-906
ружи	-907
ТО	-908
▁челове	-909
ниче	-910
▁теле	-911
▁Москвы	-912
лон	-913
▁Трамп	-914
ИД	-915
рас	-916
равитель	-917
▁запо	-918
дель	-919
вар	-920
▁Киев	-921
▁верну	-922
▁L	-923
комменти	-924
▁стал	-925
▁прокомменти	-926
▁три	-927
лли	-928
там	-929
таль	-930
▁дело	-931
мб	-932
рт	-933
щения	-934
рита	-935
готов	-936
шен	-937
чу	-938
▁зо	-939
ссажи	-940
кономи	-941
am	-942
дить	-943
▁МИД	-944
гре	-945
▁7	-946
▁Ла	-947
▁ракет	-948
▁узнали	-949
▁пода	-950
нения	-951
▁впервые	-952
▁обвинили	-953
▁встре	-954
ское	-955
▁перед	-956
▁сотруд	-957
es	-958
ему	-959
it	-960
▁R	-961
публи	-962
▁Россией	-963
говор	-964
▁иск	-965
▁6	-966
рей	-967
▁Го	-968
ченко	-969
▁Кита	-970
▁Че	-971
▁футболи	-972
▁ЧМ	-973
▁Да	-974
лем	-975
чь	-976
ым	-977
ледова	-978
▁Суд	-979
дж	-980
зии	-981
тиче	-982
▁Вы	-983
ред	-984
спи	-985
▁депута	-986
▁Оба	-987
нси	-988
▁заподоз	-989
▁I	-990
еве	-991
вест	-992
▁устро	-993
▁террори	-994
пин	-995
▁ор	-996
▁рей	-997
▁—	-998
кс	-999
▁пое	-1000
▁Медве	-1001
ню	-1002
тки	-1003
мет	-1004
ют	-1005
ген	-1006
рои	-1007
▁угро	-1008
кам	-1009
гани	-1010
▁двух	-1011
▁упа	-1012
тон	-1013
дут	-1014
▁Турции	-1015
▁погибли	-1016
хов	-1017
▁Га	-1018
▁Власти	-1019
мой	-1020
▁сов	-1021
раз	-1022
▁отно	-1023
▁Лу	-1024
ност	-1025
писа	-1026
▁обнару	-1027
▁Мино	-1028
▁детей	-1029
▁Ва	-1030
▁фа	-1031
▁интер	-1032
▁году	-1033
▁Российские	-1034
нист	-1035
жения	-1036
▁Китай	-1037
al	-1038
▁москов	-1039
▁Ав	-1040
над	-1041
▁ше	-1042
▁луч	-1043
▁журнали	-1044
вров	-1045
ченые	-1046
▁ули	-1047
▁Поли	-1048
ницу	-1049
▁стре	-1050
щен	-1051
▁рекор	-1052
щил	-1053
овой	-1054
▁сем	-1055
▁получил	-1056
прав	-1057
▁Медведе	-1058
▁нового	-1059
дении	-1060
▁разре	-1061
дера	-1062
▁кри	-1063
дин	-1064
▁тю	-1065
▁фото	-1066
▁ни	-1067
▁Крыма	-1068
▁экономи	-1069
▁Гер	-1070
▁спе	-1071
иль	-1072
дозре	-1073
ерна	-1074
фици	-1075
лении	-1076
форма	-1077
▁кол	-1078
мом	-1079
тами	-1080
лови	-1081
логи	-1082
стане	-1083
нен	-1084
шла	-1085
▁чи	-1086
▁дев	-1087
▁готов	-1088
бороны	-1089
▁Су	-1090
▁согла	-1091
тера	-1092
▁Олимпи	-1093
▁Крым	-1094
▁уда	-1095
▁россия	-1096
грам	-1097
нила	-1098
пании	-1099
ус	-1100
▁школь	-1101
▁20	-1102
Ро	-1103
▁день	-1104
▁умер	-1105
▁сообщил	-1106
ОН	-1107
тя	-1108
▁Британ	-1109
▁сдела	-1110
▁Минобороны	-1111
чить	-1112
▁ДНР	-1113
рко	-1114
чина	-1115
зни	-1116
траф	-1117
так	-1118
▁исто	-1119
▁отправи	-1120
▁тор	-1121
▁Киеве	-1122
сут	-1123
▁автомо	-1124
▁ры	-1125
▁ва	-1126
стоя	-1127
ному	-1128
▁Умер	-1129
него	-1130
стан	-1131
▁Герма	-1132
▁Крыму	-1133
▁Российский	-1134
лору	-1135
шин	-1136
нение	-1137
▁боеви	-1138
▁президента	-1139
слу	-1140
ток	-1141
▁между	-1142
pp	-1143
▁МВ	-1144
жден	-1145
▁клу	-1146
зер	-1147
▁вос	-1148
▁свои	-1149
гры	-1150
рази	-1151
▁уво	-1152
▁новый	-1153
▁Украина	-1154
зидент	-1155
лили	-1156
ъе	-1157
щение	-1158
рован	-1159
▁миллиардов	-1160
▁Названы	-1161
▁испо	-1162
ница	-1163
льный	-1164
льного	-1165
▁Пер	-1166
▁Бывший	-1167
▁ло	-1168
лии	-1169
ляр	-1170
▁Япо	-1171
жу	-1172
▁ша	-1173
тере	-1174
публикова	-1175
щего	-1176
▁бло	-1177
каз	-1178
▁анти	-1179
▁хи	-1180
▁способ	-1181
летов	-1182
рез	-1183
▁10	-1184
яти	-1185
▁спор	-1186
▁рекорд	-1187
той	-1188
▁кар	-1189
▁D	-1190
▁вве	-1191
▁спи	-1192
ково	-1193
▁мет	-1194
▁Ученые	-1195
тен	-1196
▁прод	-1197
▁дет	-1198
▁обе	-1199
▁доро	-1200
▁участи	-1201
кси	-1202
зации	-1203
▁дома	-1204
держан	-1205
сан	-1206
▁выбор	-1207
▁представи	-1208
▁НАТО	-1209
▁санкций	-1210
▁процентов	-1211
ения	-1212
▁делу	-1213
▁i	-1214
▁борь	-1215
▁ано	-1216
▁уго	-1217
▁мире	-1218
шая	-1219
ступи	-1220
▁раскры	-1221
▁осу	-1222
Га	-1223
скими	-1224
ови	-1225
▁пор	-1226
эропор	-1227
▁оружи	-1228
▁пассажи	-1229
скому	-1230
▁ю	-1231
тах	-1232
чат	-1233
евер	-1234
▁человека	-1235
ссии	-1236
сутстви	-1237
уш	-1238
▁H	-1239
▁Песков	-1240
▁четы	-1241
▁информа	-1242
нь	-1243
▁Мар	-1244
▁Ре	-1245
▁огра	-1246
▁ООН	-1247
льта	-1248
цией	-1249
бро	-1250
▁пожалова	-1251
▁поку	-1252
▁заявили	-1253
▁Президент	-1254
▁гибе	-1255
оне	-1256
рия	-1257
ницы	-1258
тики	-1259
▁подозре	-1260
▁ге	-1261
бя	-1262
ец	-1263
▁горо	-1264
▁Ле	-1265
▁помощ	-1266
▁потер	-1267
▁8	-1268
▁заподозрили	-1269
▁обвинил	-1270
лер	-1271
тар	-1272
уберна	-1273
▁смерти	-1274
бен	-1275
вез	-1276
вили	-1277
лома	-1278
▁четыре	-1279
ям	-1280
сова	-1281
▁объяснил	-1282
▁самолета	-1283
▁Подмосковье	-1284
▁пам	-1285
▁ЦБ	-1286
▁им	-1287
▁постав	-1288
зор	-1289
кке	-1290
йден	-1291
кро	-1292
зпро	-1293
▁Поль	-1294
▁пригро	-1295
зин	-1296
▁бой	-1297
нима	-1298
▁аэропор	-1299
ir	-1300
ace	-1301
ыта	-1302
▁тюрь	-1303
▁фина	-1304
▁N	-1305
ит	-1306
▁защи	-1307
▁кор	-1308
▁элек	-1309
▁Госдуме	-1310
▁увели	-1311
сили	-1312
чения	-1313
▁попыт	-1314
дь	-1315
▁Ди	-1316
▁Чи	-1317
орва	-1318
▁рассказала	-1319
чки	-1320
▁гражда	-1321
мии	-1322
▁9	-1323
▁выбо	-1324
▁Ри	-1325
▁Нов	-1326
▁чинов	-1327
▁год	-1328
▁Се	-1329
дила	-1330
▁вто	-1331
▁отстав	-1332
Бо	-1333
▁комп	-1334
▁Депута	-1335
ТП	-1336
грал	-1337
st	-1338
▁Донбассе	-1339
тила	-1340
▁V	-1341
▁подготов	-1342
вобо	-1343
▁миллиона	-1344
-1	-1345
▁фе	-1346
▁ата	-1347
гип	-1348
▁ДТП	-1349
▁дела	-1350
реа	-1351
▁Му	-1352
судар	-1353
▁обра	-1354
ака	-1355
дел	-1356
дой	-1357
Газпро	-1358
▁британ	-1359
▁отсутстви	-1360
▁ха	-1361
▁15	-1362
▁преду	-1363
дол	-1364
▁нарко	-1365
▁Франции	-1366
▁App	-1367
▁рус	-1368
▁женщ	-1369
▁Кремле	-1370
▁От	-1371
▁Медведев	-1372
бой	-1373
▁себя	-1374
▁собра	-1375
сил	-1376
ший	-1377
▁ФС	-1378
▁опас	-1379
▁Мэ	-1380
лда	-1381
▁закры	-1382
▁прекра	-1383
▁СК	-1384
▁голо	-1385
▁через	-1386
▁предложи	-1387
дки	-1388
▁жерт	-1389
▁Украину	-1390
нами	-1391
▁Ген	-1392
▁чер	-1393
▁метро	-1394
льщи	-1395
част	-1396
ровала	-1397
▁задума	-1398
ьер	-1399
зульта	-1400
▁Эк	-1401
▁ско	-1402
▁российской	-1403
▁предупре	-1404
гер	-1405
рату	-1406
▁участ	-1407
▁анонси	-1408
неф	-1409
▁Кар	-1410
лил	-1411
рово	-1412
циона	-1413
▁посе	-1414
▁матче	-1415
вого	-1416
ента	-1417
▁Ира	-1418
рию	-1419
▁пенсион	-1420
▁подтвер	-1421
▁Apple	-1422
▁женщи	-1423
чила	-1424
гно	-1425
▁Вла	-1426
▁раск	-1427
▁отказались	-1428
▁строи	-1429
▁обстре	-1430
▁кур	-1431
щении	-1432
ху	-1433
▁вра	-1434
леты	-1435
▁попу	-1436
▁Белору	-1437
▁сил	-1438
▁груп	-1439
пустили	-1440
▁Крас	-1441
▁сери	-1442
▁послед	-1443
▁Олимпиа	-1444
лете	-1445
▁дру	-1446
вое	-1447
▁Нем	-1448
▁Каза	-1449
▁бю	-1450
▁начали	-1451
▁убийстве	-1452
▁установ	-1453
нул	-1454
▁результа	-1455
▁Ис	-1456
▁ребен	-1457
мов	-1458
▁показали	-1459
бло	-1460
▁срав	-1461
▁приня	-1462
цам	-1463
равительство	-1464
▁Вели	-1465
сточ	-1466
▁тран	-1467
ставили	-1468
▁ис	-1469
▁государ	-1470
▁ти	-1471
▁санкции	-1472
курату	-1473
нистра	-1474
▁Раскры	-1475
▁решил	-1476
▁сокра	-1477
рин	-1478
▁попал	-1479
▁Кады	-1480
▁опера	-1481
мон	-1482
лик	-1483
Зени	-1484
ал	-1485
лич	-1486
дитель	-1487
▁Кур	-1488
▁биз	-1489
▁расс	-1490
дал	-1491
гран	-1492
чение	-1493
▁туристов	-1494
ничто	-1495
▁прем	-1496
▁запретили	-1497
one	-1498
ить	-1499
▁Гре	-1500
▁iP	-1501
▁пять	-1502
▁начала	-1503
▁объявил	-1504
▁предрек	-1505
мент	-1506
▁тан	-1507
▁постра	-1508
мости	-1509
▁возбу	-1510
▁первый	-1511
▁признали	-1512
вом	-1513
раб	-1514
стер	-1515
▁произ	-1516
▁пропа	-1517
ун	-1518
бер	-1519
▁Петербурге	-1520
at	-1521
ссий	-1522
тных	-1523
чину	-1524
▁деся	-1525
ина	-1526
▁Чер	-1527
▁более	-1528
▁мар	-1529
▁обы	-1530
щих	-1531
овать	-1532
▁изби	-1533
жении	-1534
ваем	-1535
хода	-1536
▁Сов	-1537
▁хокке	-1538
▁услови	-1539
▁обнаружили	-1540
▁Кон	-1541
ag	-1542
али	-1543
тал	-1544
чин	-1545
ору	-1546
нице	-1547
▁Егип	-1548
▁коман	-1549
▁Германии	-1550
▁поддержа	-1551
ro	-1552
лез	-1553
чка	-1554
нера	-1555
▁кли	-1556
▁оста	-1557
▁спас	-1558
ритании	-1559
Рос	-1560
кре	-1561
▁гру	-1562
▁соц	-1563
▁назвала	-1564
дже	-1565
▁Ти	-1566
▁Ново	-1567
▁отказалась	-1568
тит	-1569
▁Изра	-1570
▁сист	-1571
рос	-1572
шки	-1573
льной	-1574
пом	-1575
▁обсу	-1576
хра	-1577
овала	-1578
▁военных	-1579
бежа	-1580
▁исп	-1581
▁случа	-1582
▁Европы	-1583
▁гибели	-1584
ch	-1585
▁дра	-1586
▁рекла	-1587
▁возвра	-1588
▁освобо	-1589
хар	-1590
▁МВД	-1591
▁нару	-1592
ДР	-1593
стка	-1594
▁Шве	-1595
▁трех	-1596
▁ц	-1597
▁Эр	-1598
Спар	-1599
▁нау	-1600
мого	-1601
▁режи	-1602
вченко	-1603
ностран	-1604
▁Те	-1605
▁Названа	-1606
▁ад	-1607
рити	-1608
▁КН	-1609
▁объяснили	-1610
фф	-1611
▁КНДР	-1612
▁опроверг	-1613
рож	-1614
▁проте	-1615
▁совет	-1616
▁Ша	-1617
▁повы	-1618
el	-1619
▁посовет	-1620
▁Ви	-1621
▁тур	-1622
лк	-1623
рев	-1624
▁реги	-1625
▁Появи	-1626
▁допин	-1627
▁Австра	-1628
▁иде	-1629
ook	-1630
лаго	-1631
воз	-1632
того	-1633
▁вме	-1634
▁отмени	-1635
▁уничто	-1636
бий	-1637
ект	-1638
▁губерна	-1639
▁завер	-1640
▁Полиция	-1641
▁сле	-1642
▁моло	-1643
▁популяр	-1644
нина	-1645
▁уголов	-1646
▁Савченко	-1647
▁верто	-1648
▁новых	-1649
▁решили	-1650
▁кры	-1651
▁Коре	-1652
▁место	-1653
щей	-1654
ссов	-1655
▁100	-1656
▁автомоби	-1657
▁12	-1658
тельства	-1659
▁выборах	-1660
ющих	-1661
▁свое	-1662
▁газа	-1663
▁круп	-1664
▁проб	-1665
▁U	-1666
▁Ак	-1667
ремен	-1668
▁ката	-1669
▁органи	-1670
ритикова	-1671
hone	-1672
▁Москов	-1673
▁поддерж	-1674
▁сту	-1675
▁автобу	-1676
▁вла	-1677
ланд	-1678
▁нефти	-1679
▁раскритикова	-1680
шила	-1681
КА	-1682
▁выи	-1683
▁жизни	-1684
▁стали	-1685
▁информацию	-1686
цуз	-1687
▁захо	-1688
▁похи	-1689
▁сирий	-1690
▁граждан	-1691
зил	-1692
▁Хо	-1693
▁зна	-1694
точ	-1695
▁Ду	-1696
мене	-1697
▁кру	-1698
▁новые	-1699
▁предсказа	-1700
ФА	-1701
рецки	-1702
▁главы	-1703
▁превра	-1704
▁ново	-1705
яза	-1706
ic	-1707
▁ал	-1708
▁мя	-1709
▁поч	-1710
лия	-1711
▁нас	-1712
швили	-1713
▁самолет	-1714
▁пользова	-1715
вет	-1716
нала	-1717
▁арестовали	-1718
гон	-1719
▁сер	-1720
▁Face	-1721
▁стала	-1722
▁провер	-1723
▁потребовал	-1724
▁работу	-1725
▁украинских	-1726
доб	-1727
лай	-1728
▁закон	-1729
▁подроб	-1730
▁Россияне	-1731
▁мор	-1732
нем	-1733
льных	-1734
торов	-1735
▁высо	-1736
▁iPhone	-1737
▁разрабо	-1738
▁РФ	-1739
ении	-1740
▁Куб	-1741
▁соб	-1742
фа	-1743
чей	-1744
▁Фе	-1745
ован	-1746
▁дви	-1747
▁российский	-1748
▁коло	-1749
▁попыта	-1750
▁произо	-1751
бур	-1752
йдет	-1753
пуск	-1754
▁вне	-1755
gle	-1756
book	-1757
рпла	-1758
▁Goo	-1759
▁бра	-1760
стреби	-1761
фо	-1762
ение	-1763
ству	-1764
-2018	-1765
мость	-1766
▁зарпла	-1767
нок	-1768
рами	-1769
▁планах	-1770
▁сче	-1771
народ	-1772
никам	-1773
▁фана	-1774
▁своей	-1775
▁Google	-1776
рец	-1777
вшая	-1778
телям	-1779
ter	-1780
коб	-1781
▁Ха	-1782
тный	-1783
ствия	-1784
▁стрель	-1785
реаги	-1786
стана	-1787
▁китай	-1788
▁наказа	-1789
▁задержан	-1790
жет	-1791
кви	-1792
тери	-1793
россий	-1794
▁Facebook	-1795
▁ее	-1796
▁ава	-1797
▁спец	-1798
АС	-1799
▁отреаги	-1800
вии	-1801
реза	-1802
▁пес	-1803
▁золо	-1804
▁иностран	-1805
▁власти	-1806
пози	-1807
▁Китае	-1808
▁вопро	-1809
▁контра	-1810
▁Юж	-1811
▁Ста	-1812
пания	-1813
▁причи	-1814
лист	-1815
▁дан	-1816
▁Эксп	-1817
бан	-1818
сок	-1819
▁еще	-1820
▁подробности	-1821
▁пока	-1822
▁погибших	-1823
▁миллиарда	-1824
Ми	-1825
▁пои	-1826
▁Захар	-1827
▁Север	-1828
▁пове	-1829
▁людей	-1830
▁Великоб	-1831
торы	-1832
вшей	-1833
▁захва	-1834
бов	-1835
пей	-1836
▁бывшего	-1837
▁сел	-1838
▁Донец	-1839
▁памят	-1840
гру	-1841
рот	-1842
▁соба	-1843
цами	-1844
ющий	-1845
▁готовности	-1846
вор	-1847
чит	-1848
йский	-1849
is	-1850
дук	-1851
графи	-1852
▁ребенка	-1853
ок	-1854
ram	-1855
тый	-1856
▁предо	-1857
▁боевиков	-1858
тур	-1859
▁Бу	-1860
фере	-1861
▁ФСБ	-1862
акашвили	-1863
▁СБ	-1864
▁сва	-1865
▁Саакашвили	-1866
мере	-1867
▁ядер	-1868
▁попросил	-1869
re	-1870
▁жела	-1871
▁назна	-1872
▁выступ	-1873
▁полиции	-1874
На	-1875
▁Лон	-1876
▁оде	-1877
тр	-1878
бир	-1879
▁ок	-1880
лена	-1881
стиче	-1882
▁Пари	-1883
▁сроки	-1884
-3	-1885
▁Ким	-1886
▁То	-1887
▁пло	-1888
дан	-1889
ником	-1890
▁Эрдо	-1891
Роснеф	-1892
▁сняли	-1893
▁Лондо	-1894
▁столк	-1895
▁Красно	-1896
▁50	-1897
la	-1898
ством	-1899
▁Влади	-1900
▁ответ	-1901
▁оказался	-1902
зай	-1903
обнов	-1904
▁дево	-1905
йти	-1906
мена	-1907
оров	-1908
ou	-1909
хе	-1910
▁рубля	-1911
▁кино	-1912
▁Житель	-1913
▁убийства	-1914
▁Клин	-1915
▁маши	-1916
▁Число	-1917
▁истреби	-1918
▁це	-1919
▁использова	-1920
▁Аф	-1921
вшие	-1922
▁заклю	-1923
рал	-1924
▁продол	-1925
суль	-1926
▁упал	-1927
сток	-1928
▁Вер	-1929
▁коллек	-1930
▁рейтин	-1931
▁програм	-1932
ила	-1933
тие	-1934
▁Футбо	-1935
▁фильма	-1936
▁электро	-1937
зма	-1938
▁спа	-1939
▁бежен	-1940
ровой	-1941
▁O	-1942
▁заяв	-1943
▁Лавров	-1944
▁тра	-1945
▁догово	-1946
▁Правительство	-1947
лож	-1948
нди	-1949
лой	-1950
▁30	-1951
▁неза	-1952
▁трей	-1953
▁возобнов	-1954
▁ВВ	-1955
▁ош	-1956
еди	-1957
▁ЛНР	-1958
▁взя	-1959
▁тай	-1960
полчен	-1961
▁расследова	-1962
от	-1963
бай	-1964
лог	-1965
ждения	-1966
▁нашел	-1967
▁бро	-1968
▁меся	-1969
▁Кремль	-1970
шие	-1971
зопас	-1972
предели	-1973
пустила	-1974
▁оценил	-1975
лки	-1976
фин	-1977
▁четвер	-1978
▁предложила	-1979
КС	-1980
зм	-1981
▁мэ	-1982
▁Сер	-1983
▁дей	-1984
▁семь	-1985
▁превы	-1986
▁E	-1987
чной	-1988
▁фор	-1989
▁буду	-1990
▁войны	-1991
▁слова	-1992
▁оштраф	-1993
▁страны	-1994
ала	-1995
▁11	-1996
стива	-1997
▁помощи	-1998
СКА	-1999
▁уви	-2000
извест	-2001
нее	-2002
▁Ру	-2003
нить	-2004
▁оценили	-2005
вед	-2006
лого	-2007
лат	-2008
шей	-2009
вшую	-2010
▁Май	-2011
▁аль	-2012
нистр	-2013
▁игро	-2014
▁взрыва	-2015
▁тысячи	-2016
▁центре	-2017
▁признал	-2018
фон	-2019
жела	-2020
лять	-2021
▁кро	-2022
▁попросили	-2023
Ма	-2024
рук	-2025
чку	-2026
мента	-2027
лад	-2028
▁Гру	-2029
▁сред	-2030
▁Обама	-2031
ХЛ	-2032
цов	-2033
везд	-2034
▁Зем	-2035
▁газ	-2036
▁Фи	-2037
▁сп	-2038
удов	-2039
▁ЦСКА	-2040
ставил	-2041
▁отставку	-2042
вым	-2043
жде	-2044
тальян	-2045
стам	-2046
▁истории	-2047
▁переговор	-2048
еха	-2049
рат	-2050
шений	-2051
СА	-2052
утко	-2053
▁СБУ	-2054
▁дене	-2055
рэ	-2056
вшегося	-2057
кар	-2058
горе	-2059
▁Амери	-2060
▁Мутко	-2061
▁конку	-2062
▁креди	-2063
мор	-2064
туа	-2065
чно	-2066
вести	-2067
▁бере	-2068
▁одоб	-2069
▁взрыв	-2070
▁пообещали	-2071
▁Мак	-2072
грала	-2073
▁всех	-2074
▁квар	-2075
оу	-2076
яр	-2077
кель	-2078
▁заво	-2079
▁голов	-2080
,5	-2081
кови	-2082
нули	-2083
▁нач	-2084
▁подо	-2085
▁мигран	-2086
▁Пи	-2087
куратура	-2088
▁Американский	-2089
ad	-2090
нику	-2091
нился	-2092
▁конф	-2093
▁женщин	-2094
▁экстре	-2095
ниц	-2096
▁число	-2097
▁пригрози	-2098
▁отсутствии	-2099
ями	-2100
▁Би	-2101
▁Мер	-2102
▁самые	-2103
▁президент	-2104
сон	-2105
▁дом	-2106
▁испыта	-2107
▁систем	-2108
▁воору	-2109
▁бизнес	-2110
▁застре	-2111
рю	-2112
▁порно	-2113
▁Назван	-2114
▁запретить	-2115
▁Нью	-2116
▁переда	-2117
▁оказались	-2118
джи	-2119
кер	-2120
лев	-2121
сле	-2122
▁помощью	-2123
инга	-2124
▁банк	-2125
▁Ронал	-2126
▁военные	-2127
▁матча	-2128
гии	-2129
март	-2130
▁бом	-2131
▁зем	-2132
ol	-2133
us	-2134
▁ген	-2135
▁продук	-2136
жды	-2137
шим	-2138
▁In	-2139
▁Объ	-2140
ститу	-2141
▁Нава	-2142
il	-2143
▁диск	-2144
▁выступи	-2145
▁опубликова	-2146
атло	-2147
чных	-2148
тился	-2149
▁Москву	-2150
▁обвинения	-2151
▁Рады	-2152
▁срок	-2153
беж	-2154
леп	-2155
пан	-2156
▁посо	-2157
стопо	-2158
▁изви	-2159
▁верси	-2160
▁стран	-2161
▁полицейских	-2162
жут	-2163
клон	-2164
рила	-2165
▁фак	-2166
спорт	-2167
▁космо	-2168
▁отказ	-2169
▁Найден	-2170
▁Все	-2171
▁Сочи	-2172
▁пост	-2173
силова	-2174
▁Казах	-2175
▁исклю	-2176
шу	-2177
юз	-2178
лый	-2179
▁национа	-2180
тят	-2181
▁19	-2182
лько	-2183
стом	-2184
▁Air	-2185
▁пря	-2186
▁появ	-2187
вшийся	-2188
надзор	-2189
▁фильм	-2190
▁Депутат	-2191
▁Кадыров	-2192
▁мага	-2193
▁честь	-2194
▁устроили	-2195
ьян	-2196
екси	-2197
▁обяза	-2198
▁секре	-2199
ван	-2200
▁постро	-2201
▁Клинтон	-2202
▁жителей	-2203
емого	-2204
▁студен	-2205
▁интернет	-2206
▁собствен	-2207
тье	-2208
берб	-2209
чении	-2210
▁Кали	-2211
▁российские	-2212
тых	-2213
ился	-2214
▁тех	-2215
блоки	-2216
▁Украинский	-2217
лых	-2218
лье	-2219
вшим	-2220
ствие	-2221
еру	-2222
нут	-2223
шить	-2224
рить	-2225
▁рост	-2226
▁оружия	-2227
▁Опубликова	-2228
un	-2229
▁чу	-2230
несли	-2231
спилот	-2232
зя	-2233
льчи	-2234
▁2016	-2235
▁Киева	-2236
лка	-2237
ферен	-2238
▁свой	-2239
▁ликви	-2240
▁новую	-2241
чер	-2242
шта	-2243
▁своих	-2244
ена	-2245
мина	-2246
▁Кер	-2247
▁девуш	-2248
▁денег	-2249
▁заявила	-2250
▁подписа	-2251
пуга	-2252
▁сти	-2253
▁тру	-2254
▁конц	-2255
▁пара	-2256
▁связи	-2257
▁сыгра	-2258
▁Роналду	-2259
▁доллара	-2260
слам	-2261
▁ото	-2262
▁успе	-2263
▁Москва	-2264
▁деньги	-2265
▁работы	-2266
▁чемпионата	-2267
рок	-2268
▁показал	-2269
▁призвали	-2270
▁вс	-2271
сить	-2272
тиви	-2273
▁Пред	-2274
▁Сбор	-2275
▁зако	-2276
ждение	-2277
▁Пента	-2278
▁выпла	-2279
бин	-2280
телем	-2281
▁Итали	-2282
▁разви	-2283
▁список	-2284
▁выборов	-2285
щий	-2286
▁сай	-2287
▁Сберб	-2288
▁начал	-2289
▁отмен	-2290
▁парла	-2291
▁решение	-2292
чный	-2293
▁ду	-2294
тать	-2295
ходе	-2296
▁пой	-2297
▁заме	-2298
▁Путину	-2299
им	-2300
▁Запа	-2301
▁поса	-2302
▁алкого	-2303
тс	-2304
▁сына	-2305
▁ситуа	-2306
▁результате	-2307
as	-2308
ваку	-2309
▁оши	-2310
суаль	-2311
▁Алек	-2312
▁Сева	-2313
▁победу	-2314
дку	-2315
канец	-2316
▁выда	-2317
▁прио	-2318
▁право	-2319
▁города	-2320
министра	-2321
вле	-2322
▁ФИ	-2323
спек	-2324
▁спро	-2325
▁Брази	-2326
▁Созда	-2327
▁новой	-2328
▁конфлик	-2329
фы	-2330
ового	-2331
▁2017	-2332
▁Меркель	-2333
▁Украинские	-2334
▁опровергли	-2335
дя	-2336
кут	-2337
роз	-2338
▁зда	-2339
▁контрак	-2340
▁теракта	-2341
▁потребовали	-2342
▁дирек	-2343
▁Минфин	-2344
▁коми	-2345
▁безопас	-2346
цова	-2347
врови	-2348
▁пото	-2349
▁престо	-2350
гор	-2351
них	-2352
лота	-2353
ссия	-2354
▁дип	-2355
▁ФИФА	-2356
▁посла	-2357
▁футболу	-2358
▁Севастопо	-2359
▁часы	-2360
▁намере	-2361
▁правитель	-2362
миче	-2363
▁шта	-2364
стами	-2365
▁кораб	-2366
▁пробле	-2367
▁продажу	-2368
ub	-2369
зме	-2370
рап	-2371
ерты	-2372
лага	-2373
▁Кан	-2374
▁отка	-2375
летний	-2376
▁объявили	-2377
▁изна	-2378
▁болельщи	-2379
he	-2380
джа	-2381
сона	-2382
чного	-2383
▁пора	-2384
▁пяти	-2385
▁смарт	-2386
▁трейлер	-2387
ent	-2388
тий	-2389
джет	-2390
▁Соб	-2391
▁нефть	-2392
▁оппози	-2393
0-	-2394
куро	-2395
льные	-2396
пуска	-2397
Еврови	-2398
▁предпо	-2399
мбар	-2400
▁торгов	-2401
▁производ	-2402
бом	-2403
тел	-2404
▁лег	-2405
▁жертв	-2406
▁осудили	-2407
▁изнасилова	-2408
▁поки	-2409
▁беспилот	-2410
▁допустил	-2411
▁престолов	-2412
мар	-2413
▁200	-2414
▁российским	-2415
▁Подмосковья	-2416
▁возможность	-2417
гом	-2418
▁Кубка	-2419
▁Появилось	-2420
▁Великобритании	-2421
пут	-2422
шек	-2423
▁13	-2424
ходи	-2425
▁заня	-2426
▁поль	-2427
▁поезд	-2428
▁эваку	-2429
Газпром	-2430
▁отношении	-2431
Йор	-2432
ана	-2433
мию	-2434
▁нало	-2435
▁стан	-2436
▁штраф	-2437
▁останов	-2438
ряд	-2439
▁свою	-2440
▁подня	-2441
▁стать	-2442
фициаль	-2443
▁полити	-2444
▁провери	-2445
нуть	-2446
▁неу	-2447
пустит	-2448
▁второй	-2449
▁катастро	-2450
стей	-2451
▁Сто	-2452
▁отды	-2453
▁Саудов	-2454
тельство	-2455
▁падения	-2456
▁попытке	-2457
▁премьер	-2458
▁биатло	-2459
et	-2460
▁прав	-2461
▁совер	-2462
▁ракеты	-2463
▁ав	-2464
чные	-2465
▁СКР	-2466
▁море	-2467
▁похо	-2468
Спарта	-2469
вал	-2470
дво	-2471
град	-2472
ia	-2473
мали	-2474
▁сообщения	-2475
тива	-2476
▁Курс	-2477
▁фран	-2478
▁анонсировал	-2479
ове	-2480
▁прово	-2481
▁сопер	-2482
▁Европе	-2483
▁Индии	-2484
▁пользователей	-2485
дви	-2486
щем	-2487
щит	-2488
гант	-2489
ложи	-2490
ндида	-2491
▁своего	-2492
▁кандида	-2493
▁украинского	-2494
▁сви	-2495
▁уче	-2496
▁бесп	-2497
▁Новый	-2498
▁руково	-2499
око	-2500
гана	-2501
терин	-2502
▁Боле	-2503
▁запла	-2504
▁отчита	-2505
▁миллион	-2506
▁уличили	-2507
▁обвинила	-2508
▁офи	-2509
▁эта	-2510
-2016	-2511
леппо	-2512
сибир	-2513
▁самый	-2514
▁Алеппо	-2515
▁пригово	-2516
лок	-2517
лья	-2518
▁Ch	-2519
▁Тре	-2520
▁шесть	-2521
▁Сборная	-2522
нении	-2523
▁Шарап	-2524
▁заблоки	-2525
▁согласи	-2526
бря	-2527
глави	-2528
стоке	-2529
▁дизай	-2530
▁крупней	-2531
▁подозреваем	-2532
▁кни	-2533
▁язы	-2534
▁Инди	-2535
▁Донбасса	-2536
вых	-2537
кий	-2538
ску	-2539
лега	-2540
▁въе	-2541
▁взят	-2542
▁недо	-2543
▁причину	-2544
of	-2545
зем	-2546
нос	-2547
яли	-2548
▁Ал	-2549
▁супер	-2550
▁тюрьмы	-2551
Ба	-2552
нюю	-2553
лены	-2554
шинг	-2555
дителя	-2556
▁клуба	-2557
▁выборы	-2558
▁силови	-2559
▁чемпион	-2560
никами	-2561
▁прибы	-2562
▁преступ	-2563
▁определи	-2564
рое	-2565
▁ри	-2566
▁ци	-2567
▁карь	-2568
▁банков	-2569
▁колонии	-2570
▁участие	-2571
вен	-2572
няя	-2573
▁уг	-2574
▁Даге	-2575
▁масс	-2576
▁фигу	-2577
▁места	-2578
ot	-2579
вания	-2580
▁пози	-2581
▁Англи	-2582
▁армии	-2583
▁Верхов	-2584
▁раскрыл	-2585
цкий	-2586
▁Чеч	-2587
▁поста	-2588
▁фестива	-2589
▁беженцев	-2590
▁Оде	-2591
▁Боль	-2592
▁ниже	-2593
летнего	-2594
▁выпустил	-2595
▁вызва	-2596
▁почти	-2597
▁управ	-2598
▁пожаловался	-2599
▁фон	-2600
▁митин	-2601
▁кварти	-2602
▁Лю	-2603
▁купи	-2604
жар	-2605
мест	-2606
▁Раз	-2607
▁соч	-2608
▁запа	-2609
▁Краснояр	-2610
▁40	-2611
▁гу	-2612
стров	-2613
▁коро	-2614
▁Кана	-2615
▁Израиль	-2616
▁восстанов	-2617
убий	-2618
▁Таи	-2619
▁как	-2620
▁топ	-2621
▁Вене	-2622
▁соцсе	-2623
▁Японии	-2624
▁Путиным	-2625
емь	-2626
▁16	-2627
фика	-2628
▁контро	-2629
▁мальчи	-2630
▁посоветовал	-2631
вую	-2632
мия	-2633
▁Ор	-2634
теше	-2635
тона	-2636
▁Вышел	-2637
▁глава	-2638
▁убийство	-2639
Кон	-2640
▁Бер	-2641
▁Лат	-2642
▁мир	-2643
▁сум	-2644
▁судь	-2645
▁селфи	-2646
▁авиаком	-2647
▁аэропорту	-2648
▁Белоруссии	-2649
ним	-2650
▁Tw	-2651
▁неме	-2652
▁14	-2653
Аэро	-2654
▁Иран	-2655
▁пору	-2656
йского	-2657
▁Госде	-2658
▁вырос	-2659
▁лидер	-2660
▁вернуть	-2661
▁интерне	-2662
личе	-2663
▁обру	-2664
▁разо	-2665
▁борьбе	-2666
▁мужчина	-2667
мир	-2668
виси	-2669
дово	-2670
▁рез	-2671
▁рын	-2672
▁люби	-2673
▁музы	-2674
читель	-2675
▁полиция	-2676
▁приостанов	-2677
▁жа	-2678
▁ху	-2679
рожа	-2680
▁роли	-2681
▁винов	-2682
▁возду	-2683
дителей	-2684
▁расстре	-2685
▁уголовное	-2686
Ре	-2687
лго	-2688
▁ль	-2689
люка	-2690
преде	-2691
▁создать	-2692
▁Сы	-2693
мога	-2694
▁Глав	-2695
▁Улюка	-2696
▁возглави	-2697
▁антироссий	-2698
▁25	-2699
▁пя	-2700
ющего	-2701
▁ошиб	-2702
▁самых	-2703
▁договори	-2704
▁футболист	-2705
оло	-2706
коло	-2707
скор	-2708
▁Twit	-2709
▁подготовке	-2710
▁оштрафовали	-2711
▁террористов	-2712
тку	-2713
▁ответил	-2714
▁журналистов	-2715
▁Чу	-2716
▁ВВС	-2717
▁медве	-2718
▁свобо	-2719
▁Италии	-2720
ук	-2721
дро	-2722
▁рай	-2723
▁необ	-2724
▁отме	-2725
читали	-2726
▁расши	-2727
▁лай	-2728
гда	-2729
жей	-2730
▁дня	-2731
▁лиц	-2732
вшему	-2733
интере	-2734
▁ополчен	-2735
кти	-2736
ранс	-2737
▁Бан	-2738
▁жиз	-2739
▁пси	-2740
▁пья	-2741
▁один	-2742
▁дости	-2743
▁покуп	-2744
▁чиновников	-2745
▁полицейского	-2746
Игры	-2747
▁гор	-2748
▁живо	-2749
▁Twitter	-2750
▁появился	-2751
спе	-2752
▁све	-2753
▁уров	-2754
▁солда	-2755
▁Евросо	-2756
▁получили	-2757
▁возбудили	-2758
id	-2759
вок	-2760
док	-2761
лку	-2762
Ислам	-2763
▁НАСА	-2764
Боинга	-2765
▁двига	-2766
▁треть	-2767
▁международ	-2768
Ме	-2769
▁18	-2770
нике	-2771
тной	-2772
▁НХЛ	-2773
льную	-2774
циаль	-2775
катерин	-2776
▁отстра	-2777
катеринбур	-2778
лло	-2779
▁Ком	-2780
▁уни	-2781
прави	-2782
▁награ	-2783
▁потра	-2784
▁Генпро	-2785
▁их	-2786
ноко	-2787
▁бли	-2788
▁съе	-2789
Аэроф	-2790
▁спут	-2791
▁четырех	-2792
▁Лука	-2793
▁гене	-2794
▁запрет	-2795
▁Госдумы	-2796
▁диплома	-2797
▁чемпионате	-2798
стой	-2799
▁гон	-2800
▁эфи	-2801
милли	-2802
▁отвер	-2803
▁извест	-2804
▁матери	-2805
▁сексуаль	-2806
▁Ча	-2807
пара	-2808
▁Пере	-2809
▁публи	-2810
▁пострадали	-2811
мя	-2812
арсе	-2813
▁2015	-2814
▁идею	-2815
▁скан	-2816
▁корруп	-2817
такте	-2818
▁прин	-2819
▁Вашинг	-2820
▁компании	-2821
ing	-2822
кая	-2823
сила	-2824
туры	-2825
▁поме	-2826
▁Арави	-2827
▁празд	-2828
ставить	-2829
▁сравнил	-2830
▁экономики	-2831
кри	-2832
седа	-2833
стить	-2834
▁Яцен	-2835
▁заку	-2836
▁много	-2837
▁заинтере	-2838
пра	-2839
личко	-2840
▁трав	-2841
▁Яценю	-2842
▁части	-2843
▁создали	-2844
▁пригрозил	-2845
▁сотрудниче	-2846
ew	-2847
▁ОИ	-2848
служ	-2849
▁кос	-2850
▁Минэ	-2851
▁усом	-2852
▁проек	-2853
▁выстав	-2854
▁пригла	-2855
зом	-2856
куль	-2857
льхо	-2858
▁Цен	-2859
рилли	-2860
▁Кличко	-2861
▁Ростов	-2862
▁причина	-2863
ber	-2864
▁17	-2865
слами	-2866
▁долж	-2867
▁связ	-2868
▁решила	-2869
▁случай	-2870
Спартака	-2871
▁ответствен	-2872
кат	-2873
сер	-2874
▁Чен	-2875
Зенит	-2876
брали	-2877
конча	-2878
▁аварии	-2879
▁олимпи	-2880
По	-2881
▁сби	-2882
▁Сирий	-2883
▁сделал	-2884
▁условия	-2885
▁разрешили	-2886
мин	-2887
тет	-2888
чать	-2889
▁Мат	-2890
▁мини	-2891
▁свер	-2892
▁секс	-2893
▁эксп	-2894
▁борьбы	-2895
Контакте	-2896
▁подтвердил	-2897
Ан	-2898
блю	-2899
мира	-2900
стри	-2901
▁тен	-2902
Звезд	-2903
▁брен	-2904
▁Турция	-2905
ВКонтакте	-2906
▁депутата	-2907
▁отказаться	-2908
▁Ир	-2909
▁тя	-2910
зови	-2911
обра	-2912
гнози	-2913
ологи	-2914
▁отправили	-2915
▁предрекли	-2916
do	-2917
тию	-2918
▁влия	-2919
▁Боеви	-2920
▁сохра	-2921
▁стату	-2922
▁Француз	-2923
▁европей	-2924
▁получила	-2925
сах	-2926
▁благо	-2927
▁блоки	-2928
▁связа	-2929
▁хоккеи	-2930
▁государства	-2931
ляли	-2932
стки	-2933
▁зам	-2934
▁шан	-2935
▁Джон	-2936
▁Россиян	-2937
▁столкнов	-2938
▁Лукашенко	-2939
▁Новосибир	-2940
▁предсказал	-2941
еты	-2942
дино	-2943
ката	-2944
щика	-2945
▁отк	-2946
▁звез	-2947
▁самым	-2948
ur	-2949
АЗ	-2950
ссо	-2951
лить	-2952
▁Гор	-2953
▁Лиги	-2954
▁виру	-2955
▁мерт	-2956
▁Стали	-2957
▁подал	-2958
▁ресто	-2959
▁Эксперты	-2960
дор	-2961
▁шпи	-2962
▁робо	-2963
арсело	-2964
▁Мекси	-2965
▁возму	-2966
▁Роском	-2967
▁наркоти	-2968
▁причаст	-2969
рито	-2970
▁подс	-2971
ностью	-2972
▁границе	-2973
▁Олимпиады	-2974
гар	-2975
щие	-2976
лина	-2977
новь	-2978
пать	-2979
▁ФАС	-2980
▁испол	-2981
▁дисквали	-2982
▁оче	-2983
▁направ	-2984
дах	-2985
▁ог	-2986
знен	-2987
кина	-2988
▁клуб	-2989
▁права	-2990
▁часть	-2991
▁появится	-2992
▁мигрантов	-2993
тни	-2994
▁Пар	-2995
разил	-2996
стран	-2997
▁Банк	-2998
▁Побе	-2999
▁Рого	-3000
▁Япон	-3001
▁Обамы	-3002
▁Совет	-3003
▁кризи	-3004
▁зарабо	-3005
▁московском	-3006
▁раскритиковал	-3007
сек	-3008
▁доме	-3009
лограм	-3010
▁состоя	-3011
гр	-3012
▁Й	-3013
▁сам	-3014
▁Таилан	-3015
▁ввести	-3016
▁отправ	-3017
▁комплек	-3018
▁американских	-3019
мат	-3020
дной	-3021
▁Лит	-3022
▁Бель	-3023
▁вновь	-3024
▁госпи	-3025
▁законо	-3026
▁Американец	-3027
▁заинтересова	-3028
дон	-3029
лах	-3030
дена	-3031
▁бар	-3032
струк	-3033
щиков	-3034
▁пожи	-3035
▁откро	-3036
▁спортс	-3037
▁Екатеринбур	-3038
пон	-3039
▁две	-3040
▁сез	-3041
▁вело	-3042
тельно	-3043
▁Поклон	-3044
▁Испании	-3045
▁операции	-3046
▁Россиянин	-3047
слав	-3048
везда	-3049
▁бюджет	-3050
▁станет	-3051
▁желании	-3052
▁пройдет	-3053
▁Te	-3054
дова	-3055
стин	-3056
льным	-3057
▁доку	-3058
▁прави	-3059
▁разби	-3060
▁модель	-3061
▁коллекцию	-3062
▁оказалась	-3063
▁пригрозили	-3064
li	-3065
лий	-3066
▁Аб	-3067
stag	-3068
верси	-3069
зацию	-3070
нерго	-3071
▁сбежа	-3072
stagram	-3073
▁Бывшего	-3074
▁объявила	-3075
▁Instagram	-3076
▁Ги	-3077
▁The	-3078
▁Фин	-3079
▁древ	-3080
▁вышел	-3081
▁сообщила	-3082
▁смо	-3083
▁больше	-3084
▁хоккею	-3085
▁произошел	-3086
жать	-3087
ходы	-3088
ющие	-3089
защит	-3090
лябин	-3091
ровки	-3092
▁добы	-3093
▁Южной	-3094
▁актер	-3095
▁разме	-3096
▁пассажир	-3097
▁призвала	-3098
зой	-3099
щую	-3100
дать	-3101
това	-3102
лений	-3103
▁главу	-3104
▁домаш	-3105
▁снова	-3106
▁Париже	-3107
▁Боевики	-3108
▁Немцова	-3109
урман	-3110
▁Швей	-3111
▁возра	-3112
▁площа	-3113
20	-3114
зво	-3115
мок	-3116
пил	-3117
▁рэ	-3118
ринов	-3119
▁суде	-3120
▁призы	-3121
▁Сотруд	-3122
▁найден	-3123
▁запретил	-3124
ay	-3125
▁Ло	-3126
▁Яну	-3127
▁гей	-3128
▁род	-3129
тного	-3130
▁валю	-3131
▁город	-3132
▁футболиста	-3133
ed	-3134
▁он	-3135
▁Муж	-3136
▁Хар	-3137
▁Эсто	-3138
▁Китая	-3139
▁стади	-3140
▁террито	-3141
▁Российская	-3142
зде	-3143
щик	-3144
▁мы	-3145
лков	-3146
▁кам	-3147
▁посоль	-3148
▁работе	-3149
▁поддержку	-3150
▁потребовала	-3151
До	-3152
дала	-3153
▁нео	-3154
▁Воро	-3155
▁Трен	-3156
▁цены	-3157
Зенита	-3158
▁Янукови	-3159
оны	-3160
тка	-3161
чную	-3162
▁Жен	-3163
▁Месси	-3164
▁данные	-3165
▁арестован	-3166
▁пожаловались	-3167
Ве	-3168
сро	-3169
▁МЧ	-3170
личи	-3171
▁боя	-3172
▁встречи	-3173
▁системы	-3174
▁Австралии	-3175
▁спрогнози	-3176
▁чемпионов	-3177
цем	-3178
шую	-3179
поли	-3180
циях	-3181
▁фла	-3182
▁хра	-3183
▁бога	-3184
▁выро	-3185
▁позд	-3186
▁грузови	-3187
рги	-3188
▁Ге	-3189
▁ито	-3190
вшихся	-3191
▁ограни	-3192
▁нападения	-3193
▁Навального	-3194
▁украинской	-3195
▁сотрудников	-3196
вая	-3197
кса	-3198
нев	-3199
▁Ура	-3200
▁Воен	-3201
▁лицен	-3202
▁Греции	-3203
▁времен	-3204
▁пенсионер	-3205
▁признался	-3206
▁украинцев	-3207
ум	-3208
вел	-3209
сет	-3210
Дина	-3211
ьера	-3212
▁обу	-3213
▁шах	-3214
▁фотографи	-3215
▁безопасности	-3216
▁Ом	-3217
▁РП	-3218
▁бое	-3219
▁гос	-3220
▁крым	-3221
▁обла	-3222
тились	-3223
▁неизвест	-3224
Ка	-3225
мах	-3226
волю	-3227
скви	-3228
▁МЧС	-3229
▁дав	-3230
▁матч	-3231
ческий	-3232
▁взрыве	-3233
ГУ	-3234
рес	-3235
етров	-3236
▁това	-3237
ленных	-3238
▁Молда	-3239
ровании	-3240
▁Захарова	-3241
▁памятник	-3242
▁вклю	-3243
▁депутат	-3244
▁Задержан	-3245
эн	-3246
мая	-3247
тые	-3248
▁вну	-3249
▁капи	-3250
▁суда	-3251
▁Жиринов	-3252
▁Журнали	-3253
▁француз	-3254
▁ВМ	-3255
муни	-3256
санд	-3257
▁раза	-3258
▁себе	-3259
▁оскор	-3260
▁женщину	-3261
▁подорожа	-3262
бова	-3263
мани	-3264
рина	-3265
фина	-3266
вании	-3267
▁Tele	-3268
▁Луган	-3269
▁смени	-3270
▁турни	-3271
тельный	-3272
▁конкур	-3273
Роснефть	-3274
▁участников	-3275
Ар	-3276
▁МВФ	-3277
▁Рос	-3278
▁розы	-3279
▁удар	-3280
ленной	-3281
▁банка	-3282
▁вместо	-3283
▁создании	-3284
ется	-3285
щать	-3286
▁Ава	-3287
▁тон	-3288
бился	-3289
читал	-3290
▁факту	-3291
▁Тренер	-3292
▁вопрос	-3293
▁турецки	-3294
▁поставки	-3295
▁россиянина	-3296
AD	-3297
ОК	-3298
▁зд	-3299
▁Джо	-3300
▁Авто	-3301
▁Уиль	-3302
имость	-3303
▁Совфе	-3304
▁Афгани	-3305
▁москви	-3306
опар	-3307
▁гри	-3308
▁Источ	-3309
▁Турцию	-3310
▁гигант	-3311
▁нежела	-3312
▁Итальян	-3313
▁бесплат	-3314
▁Украиной	-3315
▁пострада	-3316
лец	-3317
нде	-3318
банк	-3319
клад	-3320
▁Два	-3321
▁Пья	-3322
соеди	-3323
▁Эрдоган	-3324
▁тренера	-3325
▁Северной	-3326
мби	-3327
▁St	-3328
гром	-3329
рого	-3330
зывать	-3331
▁Москви	-3332
▁намерении	-3333
▁поддержал	-3334
▁попытался	-3335
шка	-3336
▁бен	-3337
▁гим	-3338
прово	-3339
▁Тури	-3340
▁куль	-3341
▁докумен	-3342
▁сборную	-3343
▁Раскрыты	-3344
▁выступил	-3345
лян	-3346
ряс	-3347
стю	-3348
ыми	-3349
▁жизнь	-3350
▁сочли	-3351
▁создал	-3352
▁выиграл	-3353
▁референ	-3354
▁Захарченко	-3355
▁предупредил	-3356
даш	-3357
лера	-3358
▁Кри	-3359
▁Куз	-3360
▁МОК	-3361
▁бит	-3362
чиков	-3363
Динамо	-3364
▁Лидер	-3365
ческого	-3366
▁попала	-3367
▁тренер	-3368
▁миллиард	-3369
▁раскрыли	-3370
под	-3371
▁Но	-3372
▁Аса	-3373
▁потеря	-3374
▁мировой	-3375
▁Александ	-3376
▁задумались	-3377
▁представил	-3378
муще	-3379
сант	-3380
▁Сере	-3381
▁япон	-3382
▁мужчи	-3383
▁свадь	-3384
▁транс	-3385
▁часов	-3386
▁Британский	-3387
▁пассажиров	-3388
▁Американские	-3389
таж	-3390
гвар	-3391
▁РПЦ	-3392
▁зай	-3393
▁сла	-3394
▁сне	-3395
▁план	-3396
▁служ	-3397
▁среди	-3398
▁пожаре	-3399
▁Лондоне	-3400
om	-3401
ri	-3402
бри	-3403
зей	-3404
▁ВС	-3405
▁300	-3406
▁дату	-3407
льника	-3408
▁залож	-3409
▁новом	-3410
▁финан	-3411
▁путеше	-3412
▁поручил	-3413
▁американского	-3414
СЕ	-3415
мур	-3416
ссию	-3417
баров	-3418
▁дере	-3419
▁марш	-3420
летней	-3421
▁искус	-3422
▁помощь	-3423
▁поймали	-3424
▁Сбербанк	-3425
▁московского	-3426
▁ву	-3427
ксер	-3428
▁Нор	-3429
▁Сил	-3430
▁это	-3431
вание	-3432
▁День	-3433
▁замо	-3434
льский	-3435
мбарди	-3436
▁магази	-3437
тельстве	-3438
▁атакова	-3439
▁электри	-3440
▁россиянам	-3441
кей	-3442
чев	-3443
чет	-3444
щее	-3445
▁ну	-3446
▁кре	-3447
▁наци	-3448
ваться	-3449
летняя	-3450
▁Госдума	-3451
▁Пассажи	-3452
▁терактов	-3453
▁Футболист	-3454
▁Петербурга	-3455
▁отреагировал	-3456
шее	-3457
▁60	-3458
хран	-3459
ьков	-3460
▁Пра	-3461
▁нож	-3462
▁дали	-3463
▁игры	-3464
▁став	-3465
▁компа	-3466
рования	-3467
▁открыли	-3468
▁Пользова	-3469
▁необходи	-3470
▁губернатора	-3471
гна	-3472
щая	-3473
▁изъ	-3474
▁имя	-3475
▁Лени	-3476
▁севе	-3477
▁Арген	-3478
▁тенни	-3479
▁восемь	-3480
▁смерть	-3481
▁соцсет	-3482
▁получит	-3483
▁совмест	-3484
▁пообещала	-3485
ЗО	-3486
лла	-3487
чик	-3488
тиво	-3489
шину	-3490
▁Гар	-3491
▁уже	-3492
▁Сена	-3493
▁боев	-3494
▁вице	-3495
телями	-3496
▁выход	-3497
▁предъ	-3498
▁кроссов	-3499
▁ликвиди	-3500
▁первого	-3501
oy	-3502
Со	-3503
гля	-3504
▁Тай	-3505
▁визи	-3506
ландии	-3507
▁Восточ	-3508
▁Мурман	-3509
▁активи	-3510
▁количе	-3511
▁госпитали	-3512
тке	-3513
дирек	-3514
стили	-3515
▁Само	-3516
ственный	-3517
▁автомобилей	-3518
уэ	-3519
прос	-3520
штаб	-3521
ходов	-3522
ществ	-3523
лением	-3524
ставила	-3525
▁пожара	-3526
▁эвакуи	-3527
▁осужден	-3528
▁подрост	-3529
▁официаль	-3530
▁петербур	-3531
дож	-3532
мую	-3533
шку	-3534
ющим	-3535
▁Хак	-3536
▁инф	-3537
дорож	-3538
▁подло	-3539
▁Жители	-3540
▁избили	-3541
▁примен	-3542
▁Источник	-3543
бира	-3544
даль	-3545
диви	-3546
рение	-3547
строй	-3548
▁дата	-3549
смотре	-3550
▁Teleg	-3551
▁Совбе	-3552
▁Рогозин	-3553
▁покажут	-3554
ъем	-3555
▁ОБ	-3556
пере	-3557
тные	-3558
шкин	-3559
▁аре	-3560
держи	-3561
коном	-3562
▁сена	-3563
▁машины	-3564
▁перево	-3565
▁Турецки	-3566
▁Британии	-3567
▁пожизнен	-3568
ks	-3569
ADA	-3570
гло	-3571
хан	-3572
ссер	-3573
▁Вен	-3574
▁МКС	-3575
▁мин	-3576
▁что	-3577
▁Кардаш	-3578
Роснефти	-3579
▁Полицей	-3580
▁Пентагон	-3581
▁бомбарди	-3582
▁заключен	-3583
▁переговоров	-3584
Бе	-3585
ссы	-3586
▁СИ	-3587
льян	-3588
мата	-3589
рода	-3590
чика	-3591
▁Воз	-3592
▁одно	-3593
▁стар	-3594
▁тяже	-3595
▁Египет	-3596
▁Уильям	-3597
▁показала	-3598
▁российском	-3599
рыв	-3600
хуа	-3601
▁пы	-3602
вами	-3603
енса	-3604
лайн	-3605
тала	-3606
▁Слу	-3607
проект	-3608
▁бюдже	-3609
▁пожар	-3610
▁утвер	-3611
▁поезда	-3612
▁распро	-3613
▁угрозы	-3614
▁министра	-3615
▁самолетов	-3616
ких	-3617
циа	-3618
чек	-3619
▁сна	-3620
ческой	-3621
Спартак	-3622
▁интере	-3623
▁попали	-3624
▁продажи	-3625
тру	-3626
ьев	-3627
тором	-3628
▁игра	-3629
▁крас	-3630
▁курс	-3631
ждении	-3632
▁уволили	-3633
▁Кардашьян	-3634
▁Прокуратура	-3635
БР	-3636
руг	-3637
суэ	-3638
▁Миха	-3639
▁обще	-3640
▁поко	-3641
▁снял	-3642
▁собой	-3643
▁подписал	-3644
▁отношений	-3645
▁Опубликовано	-3646
ЭС	-3647
мену	-3648
ложил	-3649
ровку	-3650
▁ОБСЕ	-3651
▁обез	-3652
▁выпуск	-3653
▁одного	-3654
▁первые	-3655
Звездных	-3656
▁попросила	-3657
▁администра	-3658
▁журналиста	-3659
хот	-3660
▁поб	-3661
▁сеть	-3662
▁оправ	-3663
▁такси	-3664
тельной	-3665
▁отозва	-3666
▁переста	-3667
▁контракт	-3668
▁экстреми	-3669
▁Ев	-3670
анче	-3671
дина	-3672
ффек	-3673
▁моз	-3674
▁сим	-3675
ляции	-3676
нений	-3677
шился	-3678
▁WADA	-3679
ложили	-3680
▁борту	-3681
▁неско	-3682
▁ислами	-3683
▁провести	-3684
Про	-3685
▁Sp	-3686
▁Вра	-3687
▁МГУ	-3688
йские	-3689
▁СИЗО	-3690
▁игру	-3691
▁меди	-3692
▁миров	-3693
▁требова	-3694
FC	-3695
чис	-3696
▁Кем	-3697
▁вок	-3698
▁пала	-3699
▁Госдуму	-3700
зах	-3701
мут	-3702
фил	-3703
сках	-3704
▁Кам	-3705
▁Фана	-3706
гранич	-3707
▁снизи	-3708
Барсело	-3709
▁массов	-3710
▁мужчин	-3711
▁противо	-3712
▁фанатов	-3713
▁задержала	-3714
ТБ	-3715
нула	-3716
ятся	-3717
▁Джа	-3718
лланд	-3719
▁Керри	-3720
▁группы	-3721
▁отдыха	-3722
Аэрофлот	-3723
▁Калинин	-3724
▁причины	-3725
50	-3726
Са	-3727
эт	-3728
дец	-3729
гери	-3730
кола	-3731
шать	-3732
▁клю	-3733
▁ожи	-3734
▁геро	-3735
▁мари	-3736
▁Нидер	-3737
кистане	-3738
тельные	-3739
▁дороги	-3740
▁придума	-3741
▁Кадырова	-3742
▁процента	-3743
дия	-3744
мини	-3745
▁Кара	-3746
▁Прем	-3747
▁напом	-3748
▁региона	-3749
ac	-3750
вин	-3751
▁ря	-3752
жить	-3753
нять	-3754
руют	-3755
▁Род	-3756
▁Три	-3757
▁Ката	-3758
▁раке	-3759
▁холо	-3760
▁машин	-3761
▁мошен	-3762
бви	-3763
езд	-3764
кую	-3765
▁Шу	-3766
тарь	-3767
Йорке	-3768
▁неде	-3769
▁паци	-3770
▁Сирию	-3771
▁импор	-3772
▁конца	-3773
▁крити	-3774
▁посвя	-3775
▁Примор	-3776
▁загоре	-3777
▁соцсетях	-3778
▁футболистов	-3779
-2»	-3780
ссу	-3781
нулся	-3782
рюссе	-3783
▁пово	-3784
▁Норве	-3785
▁месте	-3786
▁оружие	-3787
▁увидел	-3788
▁мужчину	-3789
▁незакон	-3790
▁Telegram	-3791
▁спортсмен	-3792
ik	-3793
юза	-3794
▁ОП	-3795
▁СС	-3796
мется	-3797
спорта	-3798
▁Более	-3799
▁После	-3800
▁Грузии	-3801
▁допинг	-3802
▁состав	-3803
▁сделать	-3804
▁протеста	-3805
▁подмосков	-3806
▁губернатор	-3807
зию	-3808
лено	-3809
скет	-3810
▁Бол	-3811
▁пля	-3812
▁туа	-3813
льном	-3814
ствий	-3815
▁опла	-3816
▁вступ	-3817
▁лучших	-3818
▁переми	-3819
▁претен	-3820
▁учения	-3821
Локо	-3822
▁мэра	-3823
▁пыта	-3824
Локомо	-3825
▁подпи	-3826
▁узнал	-3827
▁доказа	-3828
▁победы	-3829
▁случае	-3830
▁Челябин	-3831
▁военной	-3832
Мо	-3833
ПР	-3834
дана	-3835
рует	-3836
▁Мэй	-3837
▁Чем	-3838
мении	-3839
рения	-3840
летряс	-3841
скетбо	-3842
чились	-3843
▁забил	-3844
▁подра	-3845
▁Опреде	-3846
▁мусуль	-3847
▁рестора	-3848
▁Шарапова	-3849
▁политиче	-3850
▁допустили	-3851
▁предупредили	-3852
ams	-3853
жат	-3854
мый	-3855
рую	-3856
сами	-3857
филь	-3858
▁изу	-3859
▁сда	-3860
мерть	-3861
▁каче	-3862
▁моря	-3863
▁успеш	-3864
▁обороны	-3865
▁автомобиль	-3866
ros	-3867
тую	-3868
шев	-3869
шло	-3870
мана	-3871
стры	-3872
▁Вну	-3873
▁мен	-3874
Север	-3875
лился	-3876
▁войн	-3877
▁поле	-3878
▁Объяв	-3879
▁своем	-3880
▁турец	-3881
▁Первый	-3882
▁выразил	-3883
▁захотел	-3884
▁сыграет	-3885
▁Депутаты	-3886
▁Таиланде	-3887
▁приговор	-3888
▁Роскомнадзор	-3889
▁Ши	-3890
гера	-3891
нной	-3892
▁диа	-3893
▁след	-3894
▁Ираке	-3895
▁Медин	-3896
▁вышла	-3897
▁испуга	-3898
▁телека	-3899
▁женщины	-3900
▁спецслуж	-3901
os	-3902
Пра	-3903
нау	-3904
коми	-3905
чери	-3906
▁Пен	-3907
▁упо	-3908
листы	-3909
▁Sams	-3910
▁Улюкаев	-3911
▁стороны	-3912
▁Нидерлан	-3913
шо	-3914
гут	-3915
збе	-3916
бави	-3917
бора	-3918
рота	-3919
сипе	-3920
▁For	-3921
▁Бар	-3922
▁Мэр	-3923
▁тол	-3924
▁тро	-3925
класс	-3926
▁2018	-3927
▁нефтя	-3928
рование	-3929
тельных	-3930
▁недели	-3931
▁очеред	-3932
▁Министр	-3933
Си	-3934
гей	-3935
рит	-3936
тек	-3937
▁He	-3938
утки	-3939
▁выс	-3940
▁ура	-3941
▁аген	-3942
▁слов	-3943
читать	-3944
▁выдви	-3945
▁вышли	-3946
▁нашла	-3947
ваемого	-3948
▁Латвии	-3949
▁привле	-3950
▁Венесуэ	-3951
▁устроил	-3952
▁килограм	-3953
▁Олимпиаде	-3954
дных	-3955
▁ВТБ	-3956
жений	-3957
теров	-3958
▁поло	-3959
▁пона	-3960
▁Кирги	-3961
▁реаль	-3962
▁уволь	-3963
▁Раскрыта	-3964
▁Дагестане	-3965
▁задержании	-3966
▁договорились	-3967
дея	-3968
йте	-3969
доне	-3970
шков	-3971
▁Еме	-3972
▁Авст	-3973
▁дочь	-3974
▁ходе	-3975
▁Донбасс	-3976
▁бюджета	-3977
▁высказа	-3978
▁марихуа	-3979
▁угрозой	-3980
▁фигуран	-3981
▁депутатов	-3982
▁возможности	-3983
and	-3984
ung	-3985
▁Br	-3986
Оска	-3987
тивы	-3988
▁500	-3989
▁Аль	-3990
явили	-3991
▁счет	-3992
▁акции	-3993
▁начнут	-3994
▁открыл	-3995
▁Януковича	-3996
im	-3997
ut	-3998
ены	-3999
▁ат	-4000
стря	-4001
▁РФС	-4002
▁гре	-4003
▁рес	-4004
скать	-4005
▁Раде	-4006
▁Стра	-4007
▁крае	-4008
▁забро	-4009
▁эфире	-4010
▁украли	-4011
▁Емельян	-4012
▁Премьер	-4013
▁новогод	-4014
▁рейтинг	-4015
▁превысил	-4016
▁создадут	-4017
▁переговоры	-4018
▁полицейский	-4019
▁представила	-4020
лне	-4021
тины	-4022
▁Ирак	-4023
ленный	-4024
▁позво	-4025
ственной	-4026
▁финанси	-4027
▁ограниче	-4028
▁организа	-4029
▁Емельяненко	-4030
Рус	-4031
мова	-4032
сист	-4033
▁Ива	-4034
▁Яро	-4035
тамбу	-4036
▁реак	-4037
▁слухи	-4038
▁столи	-4039
▁Стамбу	-4040
▁данных	-4041
▁начнет	-4042
▁автобус	-4043
▁условие	-4044
▁водитель	-4045
▁поздрави	-4046
▁разбился	-4047
▁разрешил	-4048
▁полицейские	-4049
Не	-4050
фу	-4051
яд	-4052
гах	-4053
гой	-4054
чез	-4055
▁Куд	-4056
▁Пор	-4057
▁цве	-4058
ратов	-4059
▁Адво	-4060
▁зада	-4061
▁член	-4062
▁Участ	-4063
▁невоз	-4064
▁режим	-4065
▁Польши	-4066
▁взорва	-4067
▁измени	-4068
ствовать	-4069
▁Samsung	-4070
▁Эксперт	-4071
▁одобрил	-4072
▁главного	-4073
▁случайно	-4074
ледователи	-4075
em	-4076
ел	-4077
нд	-4078
чке	-4079
щим	-4080
▁ВСУ	-4081
▁зато	-4082
никова	-4083
▁клиен	-4084
▁удали	-4085
▁Хакеры	-4086
▁выхода	-4087
▁машину	-4088
▁дизайнер	-4089
▁арестовал	-4090
▁объяснила	-4091
▁школьников	-4092
▁предложение	-4093
▁приговорили	-4094
шой	-4095
▁Дэ	-4096
▁Кэ	-4097
жего	-4098
банка	-4099
▁Фили	-4100
▁даль	-4101
▁убил	-4102
▁флаг	-4103
метров	-4104
нулись	-4105
▁актив	-4106
▁измен	-4107
▁проект	-4108
▁инвести	-4109
▁Петербург	-4110
▁Жириновский	-4111
▁Ове	-4112
секре	-4113
▁Госдеп	-4114
▁ситуацию	-4115
▁стоимость	-4116
ЖД	-4117
деж	-4118
тья	-4119
льно	-4120
чном	-4121
▁Яку	-4122
▁глу	-4123
▁Санк	-4124
ческие	-4125
▁бизне	-4126
▁объяв	-4127
▁удара	-4128
▁обеспе	-4129
▁космиче	-4130
▁голосова	-4131
▁компенса	-4132
▁присоеди	-4133
▁вертолета	-4134
▁застрелили	-4135
▁отреагировали	-4136
хом	-4137
▁ТВ	-4138
низи	-4139
ющей	-4140
▁Дев	-4141
туаль	-4142
▁вось	-4143
▁клад	-4144
▁моби	-4145
▁сбил	-4146
▁белору	-4147
▁доступ	-4148
▁компью	-4149
▁центра	-4150
▁шпиона	-4151
▁получат	-4152
▁Американцы	-4153
СР	-4154
лят	-4155
▁70	-4156
▁An	-4157
лине	-4158
ойгу	-4159
▁Por	-4160
▁Неме	-4161
нологи	-4162
скосмо	-4163
▁Таджи	-4164
▁Шойгу	-4165
▁грана	-4166
ффектив	-4167
▁независи	-4168
Лу	-4169
ube	-4170
дий	-4171
мыш	-4172
▁аф	-4173
поте	-4174
▁каза	-4175
▁сдел	-4176
▁Россе	-4177
▁войск	-4178
▁основ	-4179
▁слома	-4180
▁трени	-4181
льского	-4182
▁концер	-4183
▁разгро	-4184
▁федера	-4185
▁Совфеде	-4186
▁падении	-4187
▁соцсети	-4188
▁Бразилии	-4189
▁похитили	-4190
▁проведет	-4191
▁Россиянам	-4192
▁дисквалифици	-4193
зю	-4194
бок	-4195
пов	-4196
▁Ос	-4197
гами	-4198
ранса	-4199
триар	-4200
▁куро	-4201
▁сним	-4202
▁ножом	-4203
▁избира	-4204
▁направи	-4205
▁участия	-4206
▁военного	-4207
Во	-4208
▁Йем	-4209
▁Кли	-4210
▁нор	-4211
щенко	-4212
▁костю	-4213
▁покон	-4214
▁девять	-4215
▁онлайн	-4216
▁прогно	-4217
▁смартф	-4218
▁солдат	-4219
▁тюрьму	-4220
▁Неизвест	-4221
▁запустил	-4222
▁Россельхо	-4223
▁выпустила	-4224
▁заявление	-4225
▁предполага	-4226
▁расследование	-4227
Ко	-4228
ard	-4229
▁1,	-4230
енов	-4231
коль	-4232
тиль	-4233
лонов	-4234
дители	-4235
▁любви	-4236
▁наблю	-4237
▁убили	-4238
▁указа	-4239
манитар	-4240
▁военно	-4241
▁лидера	-4242
▁партии	-4243
Газпрома	-4244
▁автобуса	-4245
▁больницу	-4246
▁рождения	-4247
▁землетряс	-4248
oft	-4249
ета	-4250
анта	-4251
▁Джи	-4252
▁ФБР	-4253
льное	-4254
разви	-4255
▁Посо	-4256
нились	-4257
▁банки	-4258
▁битко	-4259
▁отрав	-4260
▁Европу	-4261
▁Польше	-4262
▁замени	-4263
▁оконча	-4264
▁стране	-4265
катастро	-4266
▁возможном	-4267
▁Саудовской	-4268
▁российскими	-4269
▁раскритиковали	-4270
мей	-4271
сор	-4272
цах	-4273
обре	-4274
теги	-4275
▁фун	-4276
▁хозя	-4277
виенко	-4278
жением	-4279
▁желез	-4280
▁Англии	-4281
▁первом	-4282
▁налогов	-4283
▁предпри	-4284
▁Матвиенко	-4285
▁конфликта	-4286
▁чемпионат	-4287
▁отсутствие	-4288
▁подозреваемых	-4289
эк	-4290
керы	-4291
твра	-4292
тета	-4293
▁оте	-4294
ждено	-4295
▁Коми	-4296
▁Пара	-4297
▁двой	-4298
▁пого	-4299
▁тела	-4300
▁новое	-4301
▁объек	-4302
▁житель	-4303
▁встрече	-4304
▁итальян	-4305
▁рекламе	-4306
▁руковод	-4307
▁законопроект	-4308
▁антироссийских	-4309
За	-4310
ouT	-4311
дке	-4312
кера	-4313
▁Мос	-4314
▁Пол	-4315
керов	-4316
циями	-4317
▁Джей	-4318
▁счел	-4319
ouTube	-4320
зербай	-4321
орвали	-4322
▁Брита	-4323
▁Победы	-4324
▁домога	-4325
▁зоопар	-4326
▁первую	-4327
▁священ	-4328
▁попытались	-4329
цар	-4330
лева	-4331
тьми	-4332
▁Нац	-4333
▁пох	-4334
стере	-4335
▁Мари	-4336
▁ушел	-4337
▁штур	-4338
ческих	-4339
▁песню	-4340
▁протест	-4341
▁невозмож	-4342
▁предотвра	-4343
▁продуктов	-4344
▁Американка	-4345
ИК	-4346
РУ	-4347
▁АТО	-4348
▁Акс	-4349
▁Для	-4350
▁Яма	-4351
▁кла	-4352
▁мас	-4353
▁цер	-4354
комен	-4355
▁Авиа	-4356
▁СССР	-4357
▁Сиби	-4358
▁мест	-4359
▁парт	-4360
▁улуч	-4361
▁коали	-4362
▁шести	-4363
▁версию	-4364
развития	-4365
▁запрете	-4366
▁Эрдогана	-4367
▁отменили	-4368
Евровидения	-4369
▁22	-4370
Янде	-4371
▁един	-4372
▁педо	-4373
▁уточ	-4374
▁Кореи	-4375
▁войне	-4376
тировал	-4377
▁Федера	-4378
▁детьми	-4379
▁оскорб	-4380
▁ужесто	-4381
▁Уильямс	-4382
▁велосипе	-4383
▁зарплаты	-4384
▁самоубий	-4385
▁задержаны	-4386
бре	-4387
▁Ше	-4388
знад	-4389
мили	-4390
▁UFC	-4391
▁боро	-4392
▁насе	-4393
▁демон	-4394
▁непри	-4395
▁семьи	-4396
▁старт	-4397
▁Брюссе	-4398
▁генера	-4399
▁Калифор	-4400
▁произво	-4401
▁действия	-4402
▁компания	-4403
▁признать	-4404
▁продавать	-4405
▁российскую	-4406
▁посоветовали	-4407
▁Россельхознад	-4408
их	-4409
Мак	-4410
вис	-4411
мея	-4412
▁23	-4413
▁зи	-4414
бера	-4415
мума	-4416
▁РЖД	-4417
▁прие	-4418
▁Волго	-4419
▁Земли	-4420
▁Филип	-4421
▁моста	-4422
▁обмен	-4423
▁обнов	-4424
пустить	-4425
▁Владиво	-4426
▁женщина	-4427
▁работать	-4428
▁Минэконом	-4429
▁гуманитар	-4430
▁задумался	-4431
▁усомнился	-4432
дам	-4433
ноу	-4434
пец	-4435
анка	-4436
сали	-4437
▁мощ	-4438
▁шоу	-4439
транс	-4440
фикси	-4441
▁въезд	-4442
▁сверх	-4443
▁Швейца	-4444
▁секрет	-4445
▁Трампом	-4446
▁завоева	-4447
▁директора	-4448
▁подозрению	-4449
▁иностранных	-4450
инг	-4451
лые	-4452
▁II	-4453
▁ды	-4454
пора	-4455
▁Гит	-4456
▁Обна	-4457
▁нако	-4458
▁Иркут	-4459
▁Чемпи	-4460
▁разве	-4461
▁олимпий	-4462
▁приготов	-4463
▁пропаган	-4464
▁анонсировали	-4465
ne	-4466
уа	-4467
Ком	-4468
дят	-4469
зву	-4470
рови	-4471
▁дея	-4472
▁пры	-4473
споко	-4474
▁блока	-4475
▁скоро	-4476
▁упала	-4477
▁только	-4478
ничестве	-4479
▁Военные	-4480
▁Губерна	-4481
▁вооружен	-4482
Исламского	-4483
▁появилось	-4484
луб	-4485
нав	-4486
ниях	-4487
▁ска	-4488
▁Скри	-4489
▁тело	-4490
rosoft	-4491
▁переи	-4492
▁прило	-4493
▁Аравии	-4494
▁Макгре	-4495
▁голову	-4496
▁Названо	-4497
▁попытку	-4498
▁начались	-4499
▁премьера	-4500
▁проститу	-4501
▁американцев	-4502
эй	-4503
-35	-4504
дит	-4505
лит	-4506
схо	-4507
▁Ль	-4508
брал	-4509
зики	-4510
стку	-4511
щики	-4512
▁Mic	-4513
▁вол	-4514
▁мяч	-4515
цкого	-4516
▁Нова	-4517
▁Режи	-4518
▁веду	-4519
▁жены	-4520
▁побо	-4521
▁Белый	-4522
▁англи	-4523
▁исчез	-4524
▁легко	-4525
▁плане	-4526
▁прием	-4527
▁сгоре	-4528
▁бывший	-4529
▁кладби	-4530
▁неделю	-4531
▁потока	-4532
Петербур	-4533
▁выиграла	-4534
▁конкурен	-4535
▁Microsoft	-4536
▁кроссовки	-4537
ПЧ	-4538
лял	-4539
▁Эбо	-4540
-2017	-4541
ционе	-4542
▁жало	-4543
▁него	-4544
▁бойко	-4545
▁имени	-4546
▁проце	-4547
▁вместе	-4548
▁сторон	-4549
▁стрельбу	-4550
▁парламента	-4551
▁госпитализи	-4552
ma	-4553
Мы	-4554
шед	-4555
▁Ma	-4556
змом	-4557
нией	-4558
▁гря	-4559
▁Афри	-4560
▁воды	-4561
льской	-4562
▁колле	-4563
▁любов	-4564
▁премии	-4565
▁розыск	-4566
▁Молдавии	-4567
▁петербург	-4568
▁подростков	-4569
▁правительства	-4570
гни	-4571
атра	-4572
▁Гон	-4573
нером	-4574
чился	-4575
▁Коло	-4576
Мистра	-4577
летнюю	-4578
▁Женщи	-4579
▁застря	-4580
▁здоров	-4581
▁потери	-4582
▁сезона	-4583
▁падение	-4584
▁похвали	-4585
тельность	-4586
▁Германия	-4587
▁обвинение	-4588
▁появились	-4589
▁наркотиков	-4590
▁превратили	-4591
▁предсказали	-4592
ok	-4593
▁Ст	-4594
вори	-4595
гали	-4596
нави	-4597
пись	-4598
пред	-4599
▁ЦИК	-4600
курор	-4601
▁мать	-4602
▁съем	-4603
▁Между	-4604
▁Пенси	-4605
▁дочери	-4606
▁умерла	-4607
▁Аксенов	-4608
▁несколько	-4609
▁программу	-4610
up	-4611
Ра	-4612
ion	-4613
лке	-4614
лыж	-4615
тим	-4616
уда	-4617
Авто	-4618
дный	-4619
емый	-4620
лень	-4621
▁Bre	-4622
▁ски	-4623
▁кока	-4624
Транса	-4625
▁самой	-4626
▁Мосгор	-4627
▁воздуш	-4628
▁трилли	-4629
▁Адвокат	-4630
Трансаэро	-4631
▁захотели	-4632
▁оставили	-4633
▁автомобил	-4634
▁собрались	-4635
▁обстреляли	-4636
шь	-4637
рус	-4638
фто	-4639
▁Хи	-4640
вала	-4641
рика	-4642
льная	-4643
тации	-4644
триса	-4645
▁Саха	-4646
▁пись	-4647
орвать	-4648
▁Актер	-4649
▁Дирек	-4650
▁около	-4651
ционный	-4652
▁митинг	-4653
▁встречу	-4654
▁перспек	-4655
▁продаже	-4656
▁развития	-4657
▁прекратить	-4658
ab	-4659
eg	-4660
if	-4661
АР	-4662
кие	-4663
шко	-4664
▁ию	-4665
голо	-4666
жгли	-4667
телю	-4668
▁вру	-4669
▁оке	-4670
тября	-4671
▁Анка	-4672
▁Узбе	-4673
▁дерев	-4674
▁выдели	-4675
▁Бельгии	-4676
▁Самолет	-4677
▁систему	-4678
▁Киргизии	-4679
▁производство	-4680
-15	-4681
тех	-4682
▁24	-4683
гули	-4684
овом	-4685
оном	-4686
циям	-4687
▁Гра	-4688
▁Кор	-4689
▁ана	-4690
Нафто	-4691
донал	-4692
писал	-4693
циден	-4694
▁музе	-4695
писали	-4696
▁адрес	-4697
▁граби	-4698
▁напал	-4699
▁центр	-4700
Нафтога	-4701
▁высоко	-4702
▁отказе	-4703
▁Харьков	-4704
▁понадея	-4705
▁контроль	-4706
▁показало	-4707
▁московских	-4708
▁американской	-4709
▁c	-4710
дох	-4711
син	-4712
▁Тю	-4713
горо	-4714
моде	-4715
нный	-4716
стью	-4717
чным	-4718
▁ЦРУ	-4719
ереме	-4720
летел	-4721
▁резко	-4722
▁школы	-4723
▁гибель	-4724
▁посети	-4725
▁развед	-4726
анчестер	-4727
▁военный	-4728
▁ответили	-4729
▁поставок	-4730
▁проблемы	-4731
▁Американская	-4732
Фор	-4733
емых	-4734
носе	-4735
▁Рио	-4736
▁мед	-4737
▁оби	-4738
▁Игро	-4739
▁кафе	-4740
▁муль	-4741
▁связь	-4742
▁десять	-4743
▁золото	-4744
▁лучшим	-4745
тировать	-4746
▁Пентаго	-4747
▁владель	-4748
▁команды	-4749
▁рекламу	-4750
▁торгово	-4751
▁Казахстане	-4752
▁подтвердили	-4753
ЕФА	-4754
гам	-4755
чий	-4756
▁дво	-4757
▁каз	-4758
▁уро	-4759
▁Даль	-4760
▁Нача	-4761
▁УЕФА	-4762
▁быть	-4763
▁вспо	-4764
▁Роспо	-4765
▁Санкт	-4766
▁разру	-4767
▁рефор	-4768
▁Умерла	-4769
▁месяца	-4770
▁подели	-4771
тельного	-4772
▁инциден	-4773
▁Роспотреб	-4774
▁аэропорта	-4775
▁причастности	-4776
▁правительство	-4777
ПЛ	-4778
вшем	-4779
рева	-4780
▁Ней	-4781
▁сен	-4782
вропо	-4783
главы	-4784
гнали	-4785
доналд	-4786
▁самми	-4787
▁Скрипа	-4788
▁одежду	-4789
▁пожела	-4790
▁Хабаров	-4791
▁полицию	-4792
▁соглашение	-4793
▁Севастополя	-4794
дно	-4795
зад	-4796
▁Уэ	-4797
▁Пам	-4798
▁Круп	-4799
▁Татар	-4800
▁микро	-4801
▁лучшие	-4802
▁Мужчина	-4803
▁министр	-4804
Макдоналд	-4805
▁причиной	-4806
▁четверть	-4807
кл	-4808
иля	-4809
льд	-4810
роят	-4811
▁аку	-4812
▁реа	-4813
▁учи	-4814
▁нефте	-4815
▁отель	-4816
▁Швеции	-4817
▁завели	-4818
▁маршру	-4819
▁полови	-4820
▁выросло	-4821
▁запрета	-4822
▁выпустит	-4823
▁проверку	-4824
зви	-4825
нных	-4826
рона	-4827
след	-4828
▁Дже	-4829
▁гло	-4830
▁ужа	-4831
▁Цена	-4832
▁Чехи	-4833
▁агре	-4834
▁пари	-4835
▁Право	-4836
▁Чечне	-4837
▁выпол	-4838
▁писто	-4839
▁удиви	-4840
▁Индоне	-4841
▁прямом	-4842
▁победил	-4843
▁погранич	-4844
▁ситуации	-4845
▁совершил	-4846
▁сравнили	-4847
▁извинился	-4848
▁Афганистане	-4849
▁строительство	-4850
▁ответственность	-4851
ian	-4852
вей	-4853
май	-4854
упо	-4855
▁Re	-4856
дами	-4857
рист	-4858
рыва	-4859
цена	-4860
▁кад	-4861
▁тем	-4862
ганов	-4863
▁выво	-4864
▁забы	-4865
▁коле	-4866
▁пило	-4867
▁разде	-4868
▁Шереме	-4869
▁версии	-4870
▁нелега	-4871
▁одежды	-4872
▁беремен	-4873
▁зафикси	-4874
▁поведал	-4875
▁проверит	-4876
▁соперника	-4877
▁Губернатор	-4878
▁ополченцев	-4879
▁опровергла	-4880
▁установили	-4881
▁возвращения	-4882
▁Пользователи	-4883
▁авиакатастро	-4884
▁Екатеринбурге	-4885
▁строительства	-4886
-24	-4887
рис	-4888
брать	-4889
▁водо	-4890
нилась	-4891
▁сутки	-4892
▁худож	-4893
фикации	-4894
▁Пушков	-4895
▁беспор	-4896
▁карьеру	-4897
▁телефон	-4898
▁животных	-4899
▁участием	-4900
▁коррупции	-4901
▁нападении	-4902
▁оппозиции	-4903
▁силовиков	-4904
lin	-4905
тым	-4906
▁вд	-4907
бани	-4908
▁400	-4909
▁ему	-4910
▁воду	-4911
▁армия	-4912
▁Никола	-4913
▁помочь	-4914
▁обыграл	-4915
▁провали	-4916
Манчестер	-4917
▁выпустили	-4918
▁парламент	-4919
Ин	-4920
нк	-4921
мил	-4922
пло	-4923
Урал	-4924
дора	-4925
тара	-4926
шком	-4927
▁май	-4928
дации	-4929
ладен	-4930
листа	-4931
пущен	-4932
▁горя	-4933
лагода	-4934
▁Аркти	-4935
▁досро	-4936
▁лекар	-4937
▁прось	-4938
▁Одессе	-4939
▁наличи	-4940
▁напали	-4941
▁отверг	-4942
▁Минкуль	-4943
▁отказал	-4944
▁баскетбо	-4945
▁создание	-4946
▁соглашения	-4947
oc	-4948
лях	-4949
▁of	-4950
▁ФР	-4951
зера	-4952
▁Пла	-4953
▁эпи	-4954
граде	-4955
▁Мосу	-4956
▁зару	-4957
▁рака	-4958
Матиль	-4959
▁войну	-4960
▁Пьяный	-4961
▁телеви	-4962
▁образова	-4963
▁собрался	-4964
Ли	-4965
сен	-4966
▁Рэ	-4967
гаре	-4968
чное	-4969
▁ого	-4970
грали	-4971
лению	-4972
▁Гроз	-4973
▁Жерт	-4974
▁сцен	-4975
пустят	-4976
▁Новой	-4977
▁драку	-4978
▁месяц	-4979
▁борьбу	-4980
▁наступ	-4981
▁провока	-4982
▁употреб	-4983
▁водителя	-4984
▁мальчика	-4985
▁катастрофы	-4986
▁согласился	-4987
▁бомбардиров	-4988
КО	-4989
Ле	-4990
дио	-4991
фер	-4992
чак	-4993
▁21	-4994
▁Ры	-4995
заве	-4996
меру	-4997
тура	-4998
▁Сем	-4999
▁гро	-5000
▁вдвое	-5001
▁радио	-5002
▁Яценюк	-5003
▁ветера	-5004
▁здания	-5005
▁премию	-5006
▁скорой	-5007
▁границы	-5008
▁сериала	-5009
▁алкоголя	-5010
▁вертолет	-5011
▁стратеги	-5012
▁Медведева	-5013
▁отношения	-5014
▁появилась	-5015
▁подозреваемого	-5016
вью	-5017
сли	-5018
теж	-5019
▁вет	-5020
▁сли	-5021
▁чар	-5022
йдена	-5023
▁киев	-5024
▁нака	-5025
▁роста	-5026
▁пациен	-5027
▁сирийской	-5028
▁Генпрокуратура	-5029
-5	-5030
xit	-5031
▁80	-5032
кипа	-5033
туру	-5034
▁Рим	-5035
▁Сын	-5036
дания	-5037
манов	-5038
▁вину	-5039
▁отде	-5040
мышлен	-5041
▁вспом	-5042
▁допол	-5043
▁модер	-5044
▁следу	-5045
▁Обнару	-5046
▁боксер	-5047
▁войска	-5048
▁лишили	-5049
▁начале	-5050
▁спортив	-5051
▁больницы	-5052
▁отменить	-5053
▁перестре	-5054
▁турецких	-5055
▁эвакуировали	-5056
-4	-5057
Ад	-5058
жо	-5059
ton	-5060
вати	-5061
▁Дву	-5062
▁бок	-5063
мокра	-5064
▁поми	-5065
▁скры	-5066
▁титу	-5067
▁Корее	-5068
▁атаки	-5069
▁Нигери	-5070
▁продали	-5071
тельности	-5072
▁перегово	-5073
▁технологи	-5074
▁Поклонская	-5075
che	-5076
пру	-5077
▁Гу	-5078
▁Зе	-5079
agen	-5080
▁Mer	-5081
▁Бра	-5082
▁аук	-5083
▁дер	-5084
деров	-5085
ницей	-5086
▁поез	-5087
кистан	-5088
планет	-5089
тилась	-5090
▁возле	-5091
▁ремон	-5092
▁симво	-5093
▁основа	-5094
▁первое	-5095
▁первой	-5096
▁полеты	-5097
▁Эстонии	-5098
▁полмилли	-5099
сии	-5100
тно	-5101
шет	-5102
шке	-5103
▁ши	-5104
влек	-5105
рией	-5106
▁Рус	-5107
▁дал	-5108
ковой	-5109
летом	-5110
мотре	-5111
▁Рабо	-5112
▁Сноу	-5113
▁охра	-5114
▁сорва	-5115
▁Польша	-5116
▁сделали	-5117
▁проверят	-5118
▁подростка	-5119
▁проверить	-5120
▁Британские	-5121
▁болельщиков	-5122
мые	-5123
▁виз	-5124
▁дов	-5125
▁сбо	-5126
стока	-5127
▁зага	-5128
▁роль	-5129
▁энер	-5130
▁Обаму	-5131
▁одной	-5132
▁собак	-5133
шинство	-5134
▁Brexit	-5135
▁похоро	-5136
▁Азербай	-5137
▁Ополчен	-5138
▁крушения	-5139
▁насмерть	-5140
▁отказали	-5141
▁Мединский	-5142
▁выступили	-5143
▁необходимости	-5144
ДД	-5145
ЕК	-5146
юр	-5147
жин	-5148
▁Au	-5149
дане	-5150
жнем	-5151
лове	-5152
мати	-5153
▁ВВП	-5154
▁Гага	-5155
▁внеш	-5156
чества	-5157
▁Ирана	-5158
▁Минзд	-5159
▁Повет	-5160
▁Произ	-5161
▁бренд	-5162
▁отклю	-5163
▁смерт	-5164
▁Египта	-5165
▁остров	-5166
▁решения	-5167
▁считать	-5168
▁заметили	-5169
▁нападение	-5170
▁опасность	-5171
▁туристиче	-5172
ГБ	-5173
org	-5174
вид	-5175
гур	-5176
дак	-5177
зен	-5178
шем	-5179
▁ущ	-5180
бить	-5181
ехал	-5182
рыве	-5183
трио	-5184
чики	-5185
▁Сан	-5186
▁зри	-5187
▁ино	-5188
▁уто	-5189
▁фей	-5190
ующих	-5191
▁Обви	-5192
ремени	-5193
▁килом	-5194
▁охран	-5195
▁судом	-5196
▁самого	-5197
▁спасли	-5198
▁Милонов	-5199
▁происхо	-5200
▁Ставропо	-5201
▁политики	-5202
▁самолете	-5203
▁создания	-5204
▁стрельбы	-5205
▁застрелил	-5206
▁нежелании	-5207
▁территории	-5208
кол	-5209
уют	-5210
цеп	-5211
чам	-5212
гать	-5213
роко	-5214
▁Лен	-5215
дером	-5216
служа	-5217
▁дней	-5218
▁окру	-5219
ставят	-5220
▁планы	-5221
▁профе	-5222
▁рубеж	-5223
▁снять	-5224
▁спаса	-5225
▁Кудрин	-5226
▁избави	-5227
▁купить	-5228
▁полета	-5229
▁прошел	-5230
▁районе	-5231
▁Внуково	-5232
▁связали	-5233
▁переимен	-5234
▁сотрудника	-5235
▁украинский	-5236
▁организации	-5237
MW	-5238
шоу	-5239
▁Фо	-5240
била	-5241
бьев	-5242
груп	-5243
деть	-5244
таря	-5245
▁BMW	-5246
▁Рей	-5247
▁Том	-5248
▁лес	-5249
льник	-5250
▁Паль	-5251
▁тари	-5252
▁фоне	-5253
шениях	-5254
▁Brent	-5255
▁Гарри	-5256
▁Интер	-5257
▁годам	-5258
▁росте	-5259
ционной	-5260
▁Египте	-5261
▁Фанаты	-5262
▁принял	-5263
▁ракету	-5264
▁теракт	-5265
модедово	-5266
▁остался	-5267
▁экстрен	-5268
▁республи	-5269
▁Китайский	-5270
▁Калифорнии	-5271
▁использовать	-5272
▁ам	-5273
вела	-5274
илла	-5275
хани	-5276
▁150	-5277
▁Бло	-5278
▁Оте	-5279
пуске	-5280
▁клип	-5281
▁част	-5282
коменд	-5283
ропера	-5284
▁гимна	-5285
▁ипоте	-5286
▁краже	-5287
▁неуда	-5288
▁рынка	-5289
▁Звезда	-5290
▁Собчак	-5291
▁младен	-5292
тировали	-5293
▁Кемеров	-5294
▁десятки	-5295
▁закрыли	-5296
▁перехва	-5297
▁существ	-5298
ственного	-5299
▁финансов	-5300
▁поблагода	-5301
▁задержания	-5302
▁столкновения	-5303
ec	-5304
йка	-5305
▁Op	-5306
золю	-5307
тина	-5308
раиль	-5309
уанов	-5310
▁Венг	-5311
▁деле	-5312
▁писа	-5313
▁ключе	-5314
▁народ	-5315
гвардии	-5316
▁избежа	-5317
▁угрозе	-5318
▁Армении	-5319
▁Донецке	-5320
▁Подозре	-5321
▁проголо	-5322
▁теракте	-5323
▁Силуанов	-5324
▁вернулся	-5325
▁отставке	-5326
▁проиграл	-5327
▁испытания	-5328
▁появление	-5329
▁килограммов	-5330
▁президентом	-5331
Би	-5332
лива	-5333
рель	-5334
▁ВКС	-5335
▁След	-5336
▁непо	-5337
▁фаль	-5338
▁Коман	-5339
▁Чечни	-5340
▁будет	-5341
▁вреза	-5342
▁похва	-5343
▁школе	-5344
▁Трампу	-5345
▁резолю	-5346
▁кризиса	-5347
▁лайнера	-5348
▁полтора	-5349
▁отправил	-5350
▁рейтинге	-5351
▁эффектив	-5352
▁мусульман	-5353
▁Великобрита	-5354
▁Следователи	-5355
▁возвращение	-5356
▁администрации	-5357
▁Роспотребнадзор	-5358
21	-5359
лн	-5360
-1»	-5361
ВАЗ	-5362
жих	-5363
сей	-5364
шат	-5365
дева	-5366
дные	-5367
чник	-5368
▁Пет	-5369
▁убе	-5370
▁Полу	-5371
▁лицо	-5372
▁наси	-5373
▁особ	-5374
▁канал	-5375
▁работ	-5376
кистана	-5377
▁городе	-5378
▁режима	-5379
▁вернули	-5380
▁допинга	-5381
▁приняли	-5382
▁займется	-5383
▁продолжи	-5384
▁Ополченцы	-5385
▁возглавил	-5386
▁заставили	-5387
▁увеличить	-5388
▁Домодедово	-5389
▁президенты	-5390
вов	-5391
нью	-5392
ренд	-5393
▁Мон	-5394
▁Спа	-5395
жного	-5396
▁Капи	-5397
▁жену	-5398
кологи	-5399
▁Париж	-5400
▁избил	-5401
▁австра	-5402
▁инвали	-5403
▁продать	-5404
▁публика	-5405
▁универси	-5406
▁автомобиля	-5407
▁поддержали	-5408
▁предъявили	-5409
▁опубликовал	-5410
▁л	-5411
oll	-5412
жай	-5413
зар	-5414
зета	-5415
каун	-5416
мены	-5417
торе	-5418
▁ВМФ	-5419
▁низ	-5420
▁уте	-5421
нется	-5422
▁Кова	-5423
▁Коро	-5424
▁ОПЕК	-5425
▁мину	-5426
▁разъ	-5427
ностей	-5428
▁Астро	-5429
тельств	-5430
▁напуга	-5431
▁отмены	-5432
▁спецна	-5433
тельствах	-5434
▁поддержке	-5435
▁проведения	-5436
yp	-5437
цом	-5438
▁ОА	-5439
дона	-5440
▁Спи	-5441
▁ман	-5442
▁пти	-5443
диной	-5444
терна	-5445
▁Джор	-5446
▁Напа	-5447
▁Рада	-5448
▁буты	-5449
▁паро	-5450
▁пеше	-5451
▁учен	-5452
ование	-5453
▁Испан	-5454
▁закуп	-5455
▁альбом	-5456
▁заседа	-5457
▁память	-5458
▁подряд	-5459
▁берегов	-5460
▁оружием	-5461
▁отменил	-5462
▁правила	-5463
▁русских	-5464
▁интернете	-5465
▁нарушении	-5466
▁поздравил	-5467
▁Российских	-5468
▁посольства	-5469
▁пригрозила	-5470
лав	-5471
офф	-5472
▁Ля	-5473
▁лу	-5474
джер	-5475
кета	-5476
▁And	-5477
▁Смо	-5478
гресс	-5479
никах	-5480
▁обма	-5481
▁фору	-5482
▁Кирил	-5483
▁Мэйуэ	-5484
▁рынке	-5485
▁сотни	-5486
АвтоВАЗ	-5487
ревнова	-5488
▁танков	-5489
▁тюрьме	-5490
▁корабль	-5491
▁обнажен	-5492
▁станции	-5493
▁экспорт	-5494
▁будущего	-5495
▁депутаты	-5496
▁запустили	-5497
▁поставках	-5498
▁Международ	-5499
Ки	-5500
art	-5501
пел	-5502
лями	-5503
▁Бал	-5504
▁Бой	-5505
▁Вто	-5506
зовый	-5507
▁Теле	-5508
▁бабу	-5509
▁раси	-5510
Коммер	-5511
ставит	-5512
▁Киеву	-5513
▁Серби	-5514
▁имуще	-5515
▁отмене	-5516
▁партию	-5517
▁подала	-5518
▁провел	-5519
▁сигаре	-5520
▁снимет	-5521
▁Пенсион	-5522
▁девочки	-5523
▁оставил	-5524
▁отозвал	-5525
▁Болельщи	-5526
▁Владимир	-5527
▁Режиссер	-5528
▁похваста	-5529
▁Верховный	-5530
▁программы	-5531
▁установил	-5532
▁возбуждено	-5533
▁Севастополе	-5534
От	-5535
des	-5536
бах	-5537
дию	-5538
▁Вз	-5539
▁шу	-5540
sche	-5541
Дону	-5542
трен	-5543
▁Зам	-5544
▁мем	-5545
▁сме	-5546
иллер	-5547
▁мече	-5548
▁огня	-5549
ностях	-5550
способ	-5551
ствиях	-5552
шением	-5553
▁брать	-5554
▁ввели	-5555
▁долга	-5556
▁драки	-5557
▁назад	-5558
▁Запада	-5559
▁Против	-5560
▁вероят	-5561
▁объеди	-5562
▁поводу	-5563
▁радика	-5564
▁размер	-5565
▁револю	-5566
▁эвакуа	-5567
▁подрались	-5568
▁поражение	-5569
▁состоянии	-5570
▁разбившегося	-5571
ель	-5572
ьет	-5573
▁ск	-5574
боль	-5575
веду	-5576
креп	-5577
▁или	-5578
кович	-5579
ровке	-5580
▁Голо	-5581
▁Двое	-5582
▁Румы	-5583
▁паль	-5584
▁макси	-5585
▁найти	-5586
ленного	-5587
▁отмену	-5588
▁пенсии	-5589
▁столич	-5590
▁Главный	-5591
▁белорус	-5592
▁израиль	-5593
▁привати	-5594
▁создаст	-5595
▁бороться	-5596
▁признала	-5597
▁загорелся	-5598
▁научились	-5599
amb	-5600
ерг	-5601
мыс	-5602
ноп	-5603
чих	-5604
гнал	-5605
лила	-5606
▁New	-5607
▁Бур	-5608
▁КХЛ	-5609
▁жур	-5610
▁фер	-5611
монов	-5612
▁Фигу	-5613
▁мото	-5614
▁отца	-5615
▁семи	-5616
мбарго	-5617
▁Andro	-5618
▁запро	-5619
▁подру	-5620
▁рынок	-5621
▁Кремля	-5622
▁Пальми	-5623
▁взлома	-5624
▁парков	-5625
▁угрозу	-5626
▁Крупней	-5627
▁бизнеса	-5628
▁военным	-5629
▁допинге	-5630
▁звездой	-5631
▁Австрали	-5632
▁Евросоюз	-5633
▁исключил	-5634
▁фестиваль	-5635
▁военнослужа	-5636
▁иностранцев	-5637
▁авиакомпании	-5638
▁американский	-5639
▁правительстве	-5640
РО	-5641
вка	-5642
мых	-5643
плы	-5644
зора	-5645
мать	-5646
мера	-5647
мори	-5648
пром	-5649
тика	-5650
▁Пав	-5651
▁Тер	-5652
▁меч	-5653
▁худ	-5654
града	-5655
позна	-5656
тфиль	-5657
▁Гран	-5658
▁Рост	-5659
▁Собя	-5660
▁лиши	-5661
Яндекс	-5662
▁выбро	-5663
▁вступи	-5664
▁дефици	-5665
▁пилота	-5666
▁ставки	-5667
▁Яценюка	-5668
▁границу	-5669
▁концерт	-5670
▁проблем	-5671
▁учитель	-5672
▁обстреле	-5673
ТР	-5674
дра	-5675
жег	-5676
зра	-5677
▁CN	-5678
бере	-5679
зами	-5680
лами	-5681
мара	-5682
▁Без	-5683
▁Кос	-5684
▁Мор	-5685
енных	-5686
пелло	-5687
▁Васи	-5688
▁базу	-5689
▁коль	-5690
ротвор	-5691
▁Корея	-5692
▁атаке	-5693
▁глоба	-5694
▁подар	-5695
▁полно	-5696
▁Сибири	-5697
▁Донецка	-5698
▁Капелло	-5699
▁Черного	-5700
▁легкоат	-5701
▁Пассажир	-5702
▁Стамбуле	-5703
▁вернуться	-5704
▁заявления	-5705
▁референду	-5706
▁дипломатов	-5707
..	-5708
ari	-5709
свя	-5710
Крас	-5711
реги	-5712
▁Рас	-5713
▁бир	-5714
▁вин	-5715
▁лич	-5716
дание	-5717
▁Airb	-5718
▁Дама	-5719
▁Двор	-5720
▁экра	-5721
ганиза	-5722
ламент	-5723
▁Прода	-5724
▁лагер	-5725
▁песни	-5726
▁прохо	-5727
▁защиты	-5728
▁помеша	-5729
▁Израиля	-5730
▁подарил	-5731
▁черноко	-5732
▁кладбище	-5733
▁запустила	-5734
▁обнаружен	-5735
▁московской	-5736
▁террориста	-5737
▁гражданства	-5738
оте	-5739
тору	-5740
▁джи	-5741
гнори	-5742
йских	-5743
▁2014	-5744
▁певи	-5745
▁сере	-5746
▁учеб	-5747
▁Асада	-5748
▁воспи	-5749
▁семей	-5750
скосмос	-5751
▁Иванов	-5752
▁Кубани	-5753
▁узнала	-5754
▁Саратов	-5755
▁лицензии	-5756
▁популярные	-5757
▁управления	-5758
▁спрогнозировал	-5759
ra	-5760
ada	-5761
ley	-5762
Поч	-5763
▁26	-5764
▁ап	-5765
Побе	-5766
биль	-5767
смен	-5768
тным	-5769
▁Кей	-5770
▁бед	-5771
▁ней	-5772
cedes	-5773
▁Дочь	-5774
▁друг	-5775
▁жени	-5776
▁Болга	-5777
▁Канад	-5778
▁Ляшко	-5779
▁Объяс	-5780
▁Урале	-5781
▁безви	-5782
▁завод	-5783
▁отеля	-5784
▁уходе	-5785
▁конста	-5786
▁призыв	-5787
▁биатлону	-5788
▁компаний	-5789
▁интернета	-5790
▁автомобили	-5791
Но	-5792
пал	-5793
роне	-5794
тана	-5795
теры	-5796
этаж	-5797
жидан	-5798
ляцию	-5799
панию	-5800
▁РФПЛ	-5801
▁геев	-5802
▁моде	-5803
▁мужа	-5804
▁плен	-5805
▁хоро	-5806
▁вмеша	-5807
▁возро	-5808
▁канад	-5809
▁Кузнец	-5810
▁достав	-5811
▁закона	-5812
ционного	-5813
▁поможет	-5814
▁прогноз	-5815
▁снялась	-5816
▁Mercedes	-5817
▁Жительница	-5818
▁освободили	-5819
▁британского	-5820
▁пострадавших	-5821
кое	-5822
ккей	-5823
собо	-5824
тике	-5825
▁Сту	-5826
▁Шну	-5827
▁нем	-5828
Форму	-5829
дного	-5830
ились	-5831
слави	-5832
▁Нары	-5833
▁атом	-5834
▁Земле	-5835
▁потре	-5836
▁соста	-5837
▁усили	-5838
▁чечен	-5839
▁группу	-5840
▁отрави	-5841
▁будущее	-5842
▁мужчины	-5843
▁Вашингто	-5844
▁Директор	-5845
▁обсудили	-5846
▁родствен	-5847
▁проиграла	-5848
▁экономике	-5849
▁ликвидации	-5850
▁переговорах	-5851
▁пожаловалась	-5852
ай	-5853
...	-5854
жной	-5855
льти	-5856
мень	-5857
риль	-5858
сило	-5859
чкин	-5860
▁Коб	-5861
▁игр	-5862
▁Каре	-5863
▁серд	-5864
▁труд	-5865
▁Девуш	-5866
▁дешев	-5867
▁новым	-5868
▁обеща	-5869
▁своим	-5870
▁сцена	-5871
риллиан	-5872
▁Аваков	-5873
▁взятки	-5874
▁машине	-5875
▁медаль	-5876
▁покупа	-5877
▁транзи	-5878
▁билетов	-5879
▁принять	-5880
▁сделала	-5881
▁операцию	-5882
▁передума	-5883
▁скандала	-5884
▁снижение	-5885
▁подсчитали	-5886
ig	-5887
Ру	-5888
То	-5889
loo	-5890
буд	-5891
▁НБ	-5892
▁Оп	-5893
-154	-5894
жный	-5895
лога	-5896
▁бур	-5897
-2014	-5898
ктиче	-5899
служи	-5900
▁Моло	-5901
▁дать	-5902
строва	-5903
▁Автор	-5904
▁минист	-5905
▁энерго	-5906
▁Европей	-5907
▁Сталина	-5908
▁зарубеж	-5909
▁сектора	-5910
▁назначил	-5911
▁запретила	-5912
▁погибшего	-5913
▁Московские	-5914
▁Московский	-5915
▁предостере	-5916
▁российское	-5917
ТС	-5918
деб	-5919
жно	-5920
кау	-5921
пой	-5922
▁Gu	-5923
бами	-5924
кнул	-5925
лига	-5926
лона	-5927
ссив	-5928
▁АЭС	-5929
▁МиГ	-5930
ующие	-5931
▁Мака	-5932
▁пунк	-5933
нимать	-5934
▁Главу	-5935
▁Латви	-5936
▁армию	-5937
▁гости	-5938
▁друга	-5939
▁Казани	-5940
▁лишить	-5941
▁масштаб	-5942
▁обсудил	-5943
▁провели	-5944
▁стрелка	-5945
▁Еврокоми	-5946
▁Организа	-5947
▁Официаль	-5948
▁женщинам	-5949
▁неожидан	-5950
▁соцсетей	-5951
▁отправить	-5952
▁поражения	-5953
▁россиянин	-5954
▁спортсменов	-5955
lie	-5956
нят	-5957
вяза	-5958
ений	-5959
▁Фло	-5960
▁уси	-5961
байка	-5962
дился	-5963
▁Вице	-5964
▁Коко	-5965
▁базе	-5966
▁внес	-5967
▁груд	-5968
▁крип	-5969
▁опол	-5970
▁упре	-5971
▁купил	-5972
▁потен	-5973
▁созна	-5974
▁числа	-5975
▁Вороне	-5976
▁Камчат	-5977
▁Япония	-5978
▁баталь	-5979
▁канала	-5980
рованных	-5981
▁Android	-5982
▁Жертвами	-5983
▁построят	-5984
Коммерсант	-5985
▁Австралий	-5986
▁Украинская	-5987
▁готовность	-5988
▁заподозрил	-5989
▁изнасиловании	-5990
-7	-5991
-9	-5992
ВО	-5993
гин	-5994
ету	-5995
люб	-5996
сво	-5997
года	-5998
няли	-5999
тров	-6000
▁мол	-6001
ловой	-6002
совой	-6003
ступа	-6004
▁Деся	-6005
▁Четы	-6006
▁выра	-6007
▁забо	-6008
▁мель	-6009
товалю	-6010
ческую	-6011
▁Супер	-6012
▁броне	-6013
▁стиле	-6014
▁инвест	-6015
▁лучший	-6016
▁пласти	-6017
▁подали	-6018
▁рейсов	-6019
градской	-6020
ственных	-6021
▁Овечкин	-6022
▁средств	-6023
▁интервью	-6024
▁остались	-6025
▁пенсионе	-6026
▁попытках	-6027
▁Появились	-6028
▁атаковали	-6029
▁выставили	-6030
▁поддержки	-6031
▁соревнова	-6032
▁заложников	-6033
▁истребителей	-6034
TA	-6035
ТВ	-6036
щу	-6037
дка	-6038
зон	-6039
меры	-6040
стру	-6041
твори	-6042
▁Char	-6043
▁Воло	-6044
▁Колу	-6045
▁базы	-6046
рованы	-6047
триарх	-6048
▁Space	-6049
▁Марсе	-6050
▁брази	-6051
▁музей	-6052
▁откло	-6053
▁психи	-6054
▁тюрем	-6055
следова	-6056
▁защиту	-6057
▁здание	-6058
▁просмо	-6059
▁Сенатор	-6060
▁договор	-6061
▁команду	-6062
▁лишился	-6063
▁площади	-6064
▁полетов	-6065
▁продлил	-6066
▁увеличи	-6067
▁гендирек	-6068
▁обеспоко	-6069
▁Сирийская	-6070
▁контрабан	-6071
Коммерсантъ	-6072
▁заблокировали	-6073
дю	-6074
мян	-6075
тая	-6076
тое	-6077
▁27	-6078
дило	-6079
обла	-6080
овое	-6081
ются	-6082
▁куп	-6083
▁син	-6084
▁шут	-6085
город	-6086
ктики	-6087
лейбо	-6088
мирал	-6089
резал	-6090
тьево	-6091
▁века	-6092
ляндии	-6093
▁Черно	-6094
▁Чехии	-6095
▁беспо	-6096
▁вошел	-6097
▁детям	-6098
▁казни	-6099
▁краси	-6100
▁огром	-6101
▁резер	-6102
▁сумму	-6103
▁Блогер	-6104
▁Якутии	-6105
▁спорта	-6106
▁Мексике	-6107
▁команди	-6108
▁платить	-6109
▁проекта	-6110
▁Финляндии	-6111
▁Полицейские	-6112
ws	-6113
bes	-6114
вай	-6115
мым	-6116
нор	-6117
сят	-6118
сети	-6119
ушек	-6120
▁доб	-6121
▁лен	-6122
▁Миню	-6123
▁Стре	-6124
▁жест	-6125
▁мост	-6126
ренбур	-6127
ртуаль	-6128
шников	-6129
▁Назар	-6130
▁допро	-6131
▁линии	-6132
▁пресс	-6133
▁экипа	-6134
▁актера	-6135
▁ближай	-6136
▁портре	-6137
▁страну	-6138
▁ударом	-6139
▁главный	-6140
▁девушки	-6141
▁зарплат	-6142
▁оставить	-6143
▁Вашингтон	-6144
▁подросток	-6145
Ту	-6146
биу	-6147
лес	-6148
худ	-6149
▁ВИ	-6150
гора	-6151
евом	-6152
нные	-6153
ноза	-6154
пить	-6155
хать	-6156
▁Heb	-6157
гнала	-6158
ждать	-6159
йская	-6160
▁Груп	-6161
▁Запо	-6162
▁Люби	-6163
▁кана	-6164
▁меня	-6165
▁поля	-6166
▁сайт	-6167
титься	-6168
▁Израи	-6169
▁долги	-6170
▁итоги	-6171
▁упали	-6172
▁Четыре	-6173
▁вокруг	-6174
▁обвиня	-6175
▁педофи	-6176
▁Национа	-6177
▁Ростове	-6178
▁замороз	-6179
▁магазин	-6180
▁туриста	-6181
▁Воробьев	-6182
▁наказать	-6183
▁самолеты	-6184
▁опасности	-6185
▁Большинство	-6186
▁независимости	-6187
МА	-6188
чай	-6189
▁Di	-6190
-400	-6191
брен	-6192
лиги	-6193
шкой	-6194
▁CNN	-6195
▁Пот	-6196
▁кот	-6197
новая	-6198
ристи	-6199
стури	-6200
▁Греф	-6201
▁ночь	-6202
▁отсу	-6203
ровало	-6204
▁Hebdo	-6205
▁акцию	-6206
▁нехва	-6207
▁поток	-6208
▁редак	-6209
▁рейса	-6210
▁Лондон	-6211
▁Руково	-6212
▁долгов	-6213
▁контак	-6214
▁расска	-6215
▁сыграл	-6216
▁Charlie	-6217
▁Мариупо	-6218
▁Чемпион	-6219
▁властей	-6220
▁вызвали	-6221
▁рекламы	-6222
▁хакеров	-6223
▁Советник	-6224
▁Улюкаева	-6225
▁обнаружи	-6226
▁количество	-6227
lay	-6228
Чел	-6229
гал	-6230
куп	-6231
бран	-6232
пили	-6233
рону	-6234
стон	-6235
шого	-6236
штей	-6237
▁ВМС	-6238
▁Вар	-6239
▁Вик	-6240
▁зва	-6241
▁поу	-6242
Реала	-6243
Челси	-6244
ллина	-6245
нести	-6246
стема	-6247
▁Спец	-6248
▁выжи	-6249
▁гомо	-6250
▁кота	-6251
▁мень	-6252
▁Чинов	-6253
▁секса	-6254
промтор	-6255
▁Forbes	-6256
▁Второй	-6257
▁бойцов	-6258
▁вырази	-6259
▁выстре	-6260
▁игрока	-6261
▁истори	-6262
▁патрио	-6263
▁пользу	-6264
▁прибли	-6265
▁финала	-6266
▁экстра	-6267
роваться	-6268
▁Забайка	-6269
▁Собянин	-6270
▁авиауда	-6271
▁увидели	-6272
▁ядерной	-6273
▁альтерна	-6274
▁посадили	-6275
▁Минпромтор	-6276
▁отчитались	-6277
▁Шереметьево	-6278
бус	-6279
зия	-6280
рян	-6281
▁35	-6282
▁Ху	-6283
▁ян	-6284
берг	-6285
зить	-6286
нило	-6287
чень	-6288
чинов	-6289
▁Roll	-6290
▁Роса	-6291
▁Твер	-6292
▁запи	-6293
▁обжа	-6294
▁раст	-6295
▁стро	-6296
курора	-6297
▁вечер	-6298
▁прока	-6299
▁реали	-6300
▁супру	-6301
▁шансы	-6302
▁ошибке	-6303
тельница	-6304
▁военную	-6305
▁предста	-6306
▁космодро	-6307
▁Евросоюза	-6308
▁бизнесмен	-6309
▁Казахстана	-6310
▁Российского	-6311
▁заключенных	-6312
▁референдума	-6313
321	-6314
man	-6315
мощ	-6316
хой	-6317
▁28	-6318
▁ум	-6319
гров	-6320
йдут	-6321
фона	-6322
▁ВИЧ	-6323
▁Две	-6324
▁Дне	-6325
▁зло	-6326
▁нет	-6327
▁убы	-6328
▁уве	-6329
Росте	-6330
пустя	-6331
▁Open	-6332
▁Ингу	-6333
▁выде	-6334
▁собы	-6335
▁сосе	-6336
тивный	-6337
▁Набиу	-6338
▁испан	-6339
▁разда	-6340
▁этапе	-6341
тельную	-6342
▁Центро	-6343
▁ареста	-6344
▁восьми	-6345
▁изъяли	-6346
▁разъяс	-6347
▁рассмо	-6348
▁ученые	-6349
▁Австрии	-6350
▁Арктике	-6351
▁Назарба	-6352
▁девочку	-6353
▁наблюда	-6354
▁минимума	-6355
▁силовики	-6356
▁полностью	-6357
▁родителей	-6358
▁подтвердила	-6359
Бу	-6360
лел	-6361
цин	-6362
даря	-6363
▁1,5	-6364
▁зас	-6365
▁ини	-6366
▁оза	-6367
делец	-6368
ованы	-6369
▁Абха	-6370
▁Теха	-6371
▁Тимо	-6372
▁долг	-6373
▁мусо	-6374
▁поке	-6375
▁тату	-6376
▁уйти	-6377
льство	-6378
▁взяли	-6379
▁депор	-6380
▁мозга	-6381
▁огонь	-6382
▁финал	-6383
тельное	-6384
▁Всемир	-6385
▁играть	-6386
▁легали	-6387
▁ненави	-6388
рованный	-6389
▁Москвой	-6390
▁авиации	-6391
▁влияние	-6392
▁лидеров	-6393
▁молодеж	-6394
▁обязали	-6395
▁полгода	-6396
▁Патриарх	-6397
▁смартфон	-6398
▁Швейцарии	-6399
▁журналист	-6400
▁сирийских	-6401
▁сообщение	-6402
▁студентов	-6403
▁Французский	-6404
▁истребителя	-6405
▁анонсировала	-6406
▁президентских	-6407
ov	-6408
вич	-6409
лере	-6410
▁Lou	-6411
▁Win	-6412
▁Дзю	-6413
▁Неф	-6414
▁Чур	-6415
▁охо	-6416
завод	-6417
▁бума	-6418
▁зара	-6419
▁неве	-6420
▁пути	-6421
▁фонд	-6422
Красно	-6423
ссоциа	-6424
▁вирус	-6425
▁власт	-6426
▁други	-6427
▁посет	-6428
▁услов	-6429
▁золота	-6430
▁первым	-6431
▁работа	-6432
▁третий	-6433
▁Произво	-6434
▁большой	-6435
▁девочка	-6436
▁девушку	-6437
▁закрыть	-6438
защитники	-6439
стической	-6440
▁Турецкий	-6441
▁домашний	-6442
▁известны	-6443
▁коалиции	-6444
▁напомнил	-6445
▁открылся	-6446
▁покончил	-6447
▁Представи	-6448
▁Сбербанка	-6449
▁национали	-6450
▁исламистов	-6451
▁кандидатов	-6452
▁фотографии	-6453
▁государство	-6454
▁последствия	-6455
od	-6456
ика	-6457
юар	-6458
▁шо	-6459
ходя	-6460
чкой	-6461
чная	-6462
▁Бон	-6463
▁НБА	-6464
▁ФРГ	-6465
▁Шот	-6466
▁был	-6467
▁шай	-6468
▁юге	-6469
Лукой	-6470
▁Аста	-6471
▁купа	-6472
городе	-6473
▁Канье	-6474
▁Флори	-6475
▁пошли	-6476
▁спустя	-6477
▁фильме	-6478
▁колонию	-6479
▁фильмов	-6480
▁Турчинов	-6481
▁ограбили	-6482
▁ядерного	-6483
▁Китайские	-6484
▁Федерации	-6485
▁вертолетов	-6486
▁вооружений	-6487
▁Официальный	-6488
▁представили	-6489
ИН	-6490
Ла	-6491
вь	-6492
ife	-6493
кме	-6494
▁Ус	-6495
вода	-6496
гоме	-6497
жных	-6498
зоне	-6499
сера	-6500
тках	-6501
тную	-6502
▁рыба	-6503
▁скла	-6504
▁союз	-6505
льному	-6506
▁Индия	-6507
▁главе	-6508
▁лицом	-6509
▁новая	-6510
▁границ	-6511
▁группи	-6512
▁жителя	-6513
▁развер	-6514
▁сериал	-6515
▁Белорус	-6516
▁времени	-6517
▁критику	-6518
▁защитить	-6519
▁клиентов	-6520
▁ответила	-6521
▁придумали	-6522
▁рассмотре	-6523
▁предложило	-6524
▁мошенничестве	-6525
ea	-6526
Лю	-6527
ana	-6528
кли	-6529
кали	-6530
мови	-6531
тило	-6532
▁Фон	-6533
▁суб	-6534
ствии	-6535
▁роди	-6536
▁уско	-6537
▁ухуд	-6538
совали	-6539
▁Игрок	-6540
▁Среди	-6541
▁красо	-6542
▁курор	-6543
тельным	-6544
▁взятку	-6545
▁добычи	-6546
▁законе	-6547
▁полков	-6548
▁уволил	-6549
▁фильмы	-6550
▁Франция	-6551
▁игроков	-6552
▁мертвым	-6553
▁персона	-6554
▁позиции	-6555
▁следова	-6556
▁культуры	-6557
▁проведут	-6558
▁возможной	-6559
▁получении	-6560
▁километров	-6561
op	-6562
НБ	-6563
лл	-6564
Аль	-6565
жке	-6566
чан	-6567
Арсе	-6568
скан	-6569
стил	-6570
туга	-6571
фоны	-6572
▁Ман	-6573
▁Нур	-6574
▁ОАЭ	-6575
▁рух	-6576
Оскар	-6577
нению	-6578
▁Дело	-6579
▁кара	-6580
▁мало	-6581
▁прер	-6582
▁тонн	-6583
говоре	-6584
ходить	-6585
▁Посол	-6586
▁звезд	-6587
▁метал	-6588
▁самая	-6589
▁семью	-6590
▁Ингуше	-6591
▁Киевом	-6592
▁главой	-6593
▁прирав	-6594
▁турист	-6595
▁попытки	-6596
▁больнице	-6597
▁врезался	-6598
▁современ	-6599
▁Россиянка	-6600
▁Шараповой	-6601
▁памятника	-6602
▁криптовалю	-6603
▁гражданство	-6604
зий	-6605
фол	-6606
▁Эл	-6607
Мега	-6608
бина	-6609
виса	-6610
выми	-6611
гова	-6612
дого	-6613
зина	-6614
▁арти	-6615
▁втор	-6616
▁прош	-6617
▁секу	-6618
▁чере	-6619
вшейся	-6620
ленные	-6621
▁Арест	-6622
▁Ливии	-6623
▁Малай	-6624
▁Слова	-6625
▁накоп	-6626
▁сериа	-6627
▁школу	-6628
нодорож	-6629
▁Родчен	-6630
▁авиаба	-6631
Нафтогаз	-6632
▁Нигерии	-6633
▁дополни	-6634
▁музыкан	-6635
▁уровень	-6636
▁Приморье	-6637
▁Скрипаля	-6638
▁виртуаль	-6639
▁Обнаружен	-6640
▁распростра	-6641
▁возвращении	-6642
▁землетрясения	-6643
di	-6644
ini	-6645
ДПР	-6646
дне	-6647
ливо	-6648
прем	-6649
роих	-6650
трит	-6651
цкие	-6652
шило	-6653
▁Анд	-6654
▁бай	-6655
▁бес	-6656
▁мая	-6657
меяли	-6658
нного	-6659
ронен	-6660
шению	-6661
▁ЛДПР	-6662
▁выну	-6663
▁оцен	-6664
▁руки	-6665
▁Джейм	-6666
▁мекси	-6667
▁позва	-6668
▁сезон	-6669
▁ущерб	-6670
рокорей	-6671
ционных	-6672
▁Airlin	-6673
▁Совбез	-6674
▁девяти	-6675
▁задерж	-6676
▁музыка	-6677
ковского	-6678
▁Гитлера	-6679
▁востоке	-6680
▁выпуска	-6681
▁голодов	-6682
▁запуска	-6683
▁поездки	-6684
▁создала	-6685
▁Немецкий	-6686
▁Определи	-6687
▁Серебрен	-6688
▁Турецкие	-6689
▁стадиона	-6690
▁Ингушетии	-6691
▁Минэнерго	-6692
▁Олимпиаду	-6693
▁марихуаны	-6694
▁наказание	-6695
▁определили	-6696
▁смартфонов	-6697
▁прекращении	-6698
ers	-6699
ler	-6700
бар	-6701
вуд	-6702
дри	-6703
лым	-6704
рым	-6705
▁ВД	-6706
▁Жу	-6707
dows	-6708
idas	-6709
ters	-6710
арко	-6711
дкой	-6712
дови	-6713
жные	-6714
▁Кэме	-6715
▁Раду	-6716
▁разы	-6717
▁цену	-6718
диться	-6719
ченных	-6720
▁Капри	-6721
▁Кубке	-6722
▁Школь	-6723
▁кибер	-6724
▁немец	-6725
▁посту	-6726
▁психо	-6727
▁ранен	-6728
▁Бельги	-6729
▁аккаун	-6730
▁визита	-6731
▁загадо	-6732
▁сбежал	-6733
▁снимут	-6734
▁финале	-6735
регистри	-6736
▁Windows	-6737
▁Турцией	-6738
▁выбрали	-6739
▁медведя	-6740
▁перебро	-6741
▁потерял	-6742
▁Британец	-6743
▁появятся	-6744
▁Тимошенко	-6745
▁мультфиль	-6746
▁повышение	-6747
▁Британская	-6748
▁ВЭ	-6749
▁Же	-6750
Реал	-6751
жена	-6752
купа	-6753
сооб	-6754
шими	-6755
▁пан	-6756
нефти	-6757
нисти	-6758
стера	-6759
тацию	-6760
▁Uber	-6761
▁Двух	-6762
▁стен	-6763
▁услу	-6764
матиче	-6765
теллек	-6766
▁бомбы	-6767
▁нокау	-6768
▁париж	-6769
▁повто	-6770
▁фонда	-6771
▁Минске	-6772
▁хоккей	-6773
ждествен	-6774
▁Лондона	-6775
▁Найдена	-6776
▁перевоз	-6777
▁погибла	-6778
▁Airlines	-6779
▁действий	-6780
▁наказали	-6781
▁переходе	-6782
▁заработал	-6783
▁поколения	-6784
▁высказался	-6785
▁результаты	-6786
▁Подозреваем	-6787
▁столкнулись	-6788
▁авиакомпания	-6789
Это	-6790
лью	-6791
фов	-6792
atch	-6793
гент	-6794
зыва	-6795
кома	-6796
▁Руб	-6797
▁ван	-6798
▁лыж	-6799
▁оли	-6800
▁уре	-6801
рожен	-6802
▁ЕСПЧ	-6803
▁Убий	-6804
▁невы	-6805
▁руку	-6806
льских	-6807
▁Ирака	-6808
▁кроко	-6809
▁побил	-6810
▁помог	-6811
▁Белого	-6812
▁Доказа	-6813
▁подвод	-6814
▁снизил	-6815
▁снимок	-6816
▁сожгли	-6817
▁Коломой	-6818
▁главная	-6819
▁главную	-6820
▁беспоряд	-6821
▁половины	-6822
▁благодаря	-6823
▁выступила	-6824
▁произошла	-6825
▁отстранили	-6826
▁Новосибирске	-6827
▁сотрудничестве	-6828
орт	-6829
мату	-6830
ссен	-6831
▁600	-6832
▁Ели	-6833
▁Оре	-6834
▁ПВО	-6835
▁юби	-6836
Интер	-6837
дании	-6838
▁лета	-6839
▁плей	-6840
▁спря	-6841
бирать	-6842
льские	-6843
▁Эбола	-6844
▁индий	-6845
▁прогу	-6846
▁самую	-6847
▁укреп	-6848
▁форму	-6849
▁этажа	-6850
страции	-6851
▁Тиллер	-6852
▁довери	-6853
▁звезды	-6854
▁мотоци	-6855
▁театра	-6856
▁Porsche	-6857
▁Раскрыт	-6858
▁второго	-6859
▁мальчик	-6860
▁начался	-6861
▁расходы	-6862
▁биатлони	-6863
▁замглавы	-6864
▁полицией	-6865
▁продукты	-6866
▁сообщило	-6867
▁Верховной	-6868
▁Индонезии	-6869
▁Создатели	-6870
▁ограничить	-6871
▁проведение	-6872
▁американском	-6873
ПС	-6874
Та	-6875
год	-6876
кос	-6877
лее	-6878
нит	-6879
▁90	-6880
▁Ил	-6881
▁ез	-6882
днев	-6883
каде	-6884
сной	-6885
тури	-6886
ющую	-6887
▁Fal	-6888
▁Tim	-6889
▁взы	-6890
▁кло	-6891
▁сло	-6892
▁уку	-6893
печат	-6894
▁Игра	-6895
▁адво	-6896
▁газо	-6897
▁шоко	-6898
ования	-6899
читала	-6900
▁Дизай	-6901
▁вокза	-6902
▁мусор	-6903
▁откре	-6904
▁десяти	-6905
▁заводе	-6906
▁мирных	-6907
▁паспор	-6908
▁попало	-6909
▁продаж	-6910
▁прошли	-6911
▁Авакова	-6912
▁опустил	-6913
▁покупку	-6914
▁посадку	-6915
▁Брюсселе	-6916
▁Нарышкин	-6917
▁аэропорт	-6918
▁движение	-6919
▁мексикан	-6920
▁миротвор	-6921
▁рекоменд	-6922
▁сентября	-6923
▁захватили	-6924
▁оказалось	-6925
▁пассажира	-6926
▁чиновника	-6927
Евровидении	-6928
ue	-6929
ul	-6930
ГО	-6931
фт	-6932
цо	-6933
sia	-6934
пок	-6935
тик	-6936
▁Зю	-6937
▁НП	-6938
▁яй	-6939
ккеи	-6940
лери	-6941
мами	-6942
проп	-6943
чева	-6944
▁Сим	-6945
▁Юна	-6946
▁зво	-6947
выбор	-6948
казал	-6949
форми	-6950
▁Маск	-6951
▁Прин	-6952
▁зака	-6953
▁небе	-6954
дением	-6955
лестин	-6956
льском	-6957
▁Багда	-6958
▁Башки	-6959
▁Запад	-6960
▁Рэпер	-6961
▁акций	-6962
▁брата	-6963
▁книги	-6964
▁отдых	-6965
▁рубль	-6966
▁улице	-6967
▁жертва	-6968
▁присво	-6969
▁разгля	-6970
▁подорва	-6971
▁протара	-6972
Локомотив	-6973
▁выступит	-6974
▁регионов	-6975
▁перемирия	-6976
▁предложат	-6977
▁Саудовская	-6978
▁понадеялся	-6979
▁уничтожили	-6980
▁производства	-6981
рур	-6982
суд	-6983
▁33	-6984
▁Sk	-6985
▁МС	-6986
вина	-6987
носа	-6988
ткой	-6989
▁Дми	-6990
жется	-6991
ковых	-6992
▁Play	-6993
▁близ	-6994
▁взял	-6995
▁наде	-6996
▁неиз	-6997
женный	-6998
лливуд	-6999
ниться	-7000
▁Самый	-7001
▁двумя	-7002
▁полов	-7003
▁полуо	-7004
▁пятер	-7005
мунисты	-7006
тельном	-7007
▁Йемене	-7008
▁вызвал	-7009
▁насили	-7010
▁пенсий	-7011
▁членов	-7012
▁девушек	-7013
▁перечис	-7014
▁признан	-7015
▁Харькове	-7016
▁заплатит	-7017
▁запустит	-7018
▁зарплату	-7019
▁интеллек	-7020
▁отметили	-7021
▁Дагестана	-7022
▁Сирийские	-7023
▁бесплатно	-7024
▁должности	-7025
▁инопланет	-7026
▁нарушения	-7027
▁населения	-7028
▁чемпионом	-7029
▁Белоруссия	-7030
▁Сотрудники	-7031
▁биатлонист	-7032
▁уничтожении	-7033
йн	-7034
err	-7035
uit	-7036
еву	-7037
▁ях	-7038
berg	-7039
дара	-7040
йтед	-7041
▁700	-7042
▁Vol	-7043
▁Али	-7044
▁еди	-7045
▁лон	-7046
▁пят	-7047
▁Лебе	-7048
▁бага	-7049
▁бесс	-7050
▁ввоз	-7051
▁дебо	-7052
▁засу	-7053
▁мили	-7054
▁поро	-7055
▁слож	-7056
льянов	-7057
торгов	-7058
чество	-7059
▁Хорва	-7060
▁патру	-7061
▁прова	-7062
▁сняла	-7063
▁судей	-7064
▁Каприо	-7065
▁Студен	-7066
▁завода	-7067
▁настоя	-7068
▁поклон	-7069
▁сервис	-7070
ственным	-7071
▁Юнайтед	-7072
▁баррель	-7073
▁выросла	-7074
▁выросли	-7075
▁карьеры	-7076
▁откроет	-7077
▁хищении	-7078
пропетров	-7079
▁запрещен	-7080
▁исчезнов	-7081
▁конкурса	-7082
▁прослави	-7083
▁компьютер	-7084
▁появления	-7085
▁британских	-7086
▁пенсионного	-7087
▁Генпрокурату	-7088
део	-7089
пти	-7090
кона	-7091
манд	-7092
тыми	-7093
чков	-7094
ятии	-7095
▁НТВ	-7096
▁зап	-7097
▁сот	-7098
краин	-7099
несла	-7100
опера	-7101
строи	-7102
товой	-7103
циали	-7104
▁Лиге	-7105
▁Нобе	-7106
▁Ряза	-7107
▁брон	-7108
▁двое	-7109
▁орби	-7110
▁поху	-7111
▁экск	-7112
гресса	-7113
магоме	-7114
сужден	-7115
▁Ходор	-7116
▁балли	-7117
▁гаран	-7118
▁годов	-7119
▁ограб	-7120
▁плани	-7121
▁серии	-7122
▁стало	-7123
▁татуи	-7124
▁Олланд	-7125
▁ворота	-7126
▁изобра	-7127
▁подвер	-7128
▁снимки	-7129
▁Израиле	-7130
▁Карелии	-7131
▁амнисти	-7132
▁главные	-7133
▁городов	-7134
▁демокра	-7135
▁лидером	-7136
▁покажет	-7137
▁туристы	-7138
▁футбола	-7139
▁коммента	-7140
▁поддержи	-7141
Петербурге	-7142
▁Казахстан	-7143
▁Нурмагоме	-7144
▁Пентагона	-7145
▁отчитался	-7146
▁официально	-7147
▁истребители	-7148
▁полмиллиона	-7149
▁использование	-7150
-8	-7151
кло	-7152
евра	-7153
меня	-7154
мерт	-7155
нями	-7156
ропо	-7157
▁Осе	-7158
▁Плю	-7159
▁Рай	-7160
енный	-7161
▁Джен	-7162
▁Мать	-7163
▁воло	-7164
▁лоша	-7165
▁охот	-7166
вшаяся	-7167
▁Самой	-7168
▁внима	-7169
▁карто	-7170
▁новей	-7171
▁полет	-7172
▁семья	-7173
▁Хоккеи	-7174
▁замену	-7175
▁запуск	-7176
▁начало	-7177
▁энерге	-7178
▁будущем	-7179
▁Британцы	-7180
▁Компания	-7181
▁введение	-7182
▁возраста	-7183
▁избиении	-7184
▁одобрила	-7185
▁русского	-7186
Локомотива	-7187
▁Крымского	-7188
▁австралий	-7189
▁повышения	-7190
▁катастрофе	-7191
▁украинским	-7192
▁железнодорож	-7193
▁подозреваемый	-7194
▁расследования	-7195
▁строительстве	-7196
ci	-7197
ess	-7198
ане	-7199
дик	-7200
ким	-7201
кки	-7202
лег	-7203
▁аб	-7204
ссан	-7205
тает	-7206
▁Reu	-7207
▁Вой	-7208
▁аро	-7209
▁чем	-7210
ектак	-7211
укерб	-7212
▁Арша	-7213
▁Бере	-7214
▁Веду	-7215
▁Один	-7216
▁ФСИН	-7217
▁двор	-7218
▁люди	-7219
▁пива	-7220
▁угля	-7221
вшиеся	-7222
чивать	-7223
▁врача	-7224
▁кражу	-7225
▁солне	-7226
▁суток	-7227
▁троих	-7228
▁готови	-7229
▁киноте	-7230
▁малень	-7231
▁обозна	-7232
▁устрой	-7233
▁Reuters	-7234
▁месяцев	-7235
▁приняла	-7236
▁социаль	-7237
▁Камчатке	-7238
▁завершил	-7239
▁шпионаже	-7240
▁превысила	-7241
▁задержание	-7242
▁преследова	-7243
▁использовании	-7244
▁спрогнозировали	-7245
ta	-7246
ГБТ	-7247
жем	-7248
жец	-7249
кия	-7250
они	-7251
оры	-7252
чем	-7253
▁36	-7254
▁La	-7255
▁Le	-7256
пода	-7257
прин	-7258
разу	-7259
щими	-7260
▁Вин	-7261
▁ПРО	-7262
▁Плу	-7263
▁Фор	-7264
▁гов	-7265
▁сте	-7266
будил	-7267
вагон	-7268
▁Дона	-7269
▁дека	-7270
▁дове	-7271
▁есть	-7272
▁плат	-7273
▁пошу	-7274
▁трое	-7275
-2017»	-7276
▁Литвы	-7277
▁Откры	-7278
▁вести	-7279
▁языка	-7280
Правого	-7281
▁Цукерб	-7282
▁дорогу	-7283
▁медали	-7284
ственные	-7285
▁банкрот	-7286
▁главным	-7287
▁древней	-7288
▁покупке	-7289
▁попался	-7290
▁привлек	-7291
▁разобра	-7292
▁внедорож	-7293
▁генерала	-7294
▁запретят	-7295
▁заставил	-7296
▁зрителей	-7297
▁квартиры	-7298
▁отставки	-7299
▁утвердил	-7300
▁школьник	-7301
▁Дворкович	-7302
▁последний	-7303
▁фестивале	-7304
▁фестиваля	-7305
▁испугались	-7306
▁поблагодарил	-7307
▁домогательствах	-7308
хам	-7309
▁Зо	-7310
САГО	-7311
выше	-7312
груз	-7313
мбуд	-7314
стал	-7315
хади	-7316
▁Льв	-7317
▁Сен	-7318
▁вен	-7319
▁вза	-7320
йском	-7321
стали	-7322
тится	-7323
▁Bent	-7324
▁Vuit	-7325
▁Севе	-7326
▁арби	-7327
▁иран	-7328
▁кита	-7329
▁пояс	-7330
Россия	-7331
блиоте	-7332
нением	-7333
▁Louis	-7334
▁Кузба	-7335
▁Марка	-7336
▁амери	-7337
▁белье	-7338
▁книгу	-7339
▁Аравия	-7340
▁детали	-7341
▁добычу	-7342
▁мельдо	-7343
▁принес	-7344
▁собаку	-7345
▁старта	-7346
▁Vuitton	-7347
▁Грозном	-7348
▁Слуцкий	-7349
▁безрабо	-7350
▁ребенок	-7351
▁крушении	-7352
▁лицензию	-7353
▁перепута	-7354
▁повысить	-7355
▁покупать	-7356
▁посчитал	-7357
▁продлить	-7358
▁раскрыла	-7359
Макдоналдс	-7360
▁Восточный	-7361
▁предложит	-7362
▁Набиуллина	-7363
▁зарегистри	-7364
▁референдум	-7365
▁россиянами	-7366
▁преступления	-7367
▁сотрудничества	-7368
Па	-7369
Пу	-7370
ера	-7371
нял	-7372
чел	-7373
Мисс	-7374
авто	-7375
годи	-7376
граф	-7377
жига	-7378
мбии	-7379
тест	-7380
тиру	-7381
язви	-7382
▁Лав	-7383
▁бою	-7384
▁зон	-7385
ation	-7386
лавян	-7387
менте	-7388
▁ЛГБТ	-7389
▁Обще	-7390
▁двер	-7391
▁миру	-7392
▁небо	-7393
▁офис	-7394
▁стри	-7395
▁часа	-7396
парати	-7397
▁Белом	-7398
▁Новак	-7399
▁Ямале	-7400
▁атаку	-7401
▁герои	-7402
▁молот	-7403
▁украл	-7404
▁Катало	-7405
▁Кирилл	-7406
▁Послед	-7407
▁боепри	-7408
▁десант	-7409
▁кибера	-7410
▁поиска	-7411
▁службы	-7412
▁собрал	-7413
▁списка	-7414
▁Европар	-7415
▁Осужден	-7416
▁внутрен	-7417
▁желание	-7418
▁обнарод	-7419
▁перевер	-7420
▁слишком	-7421
▁Минкульт	-7422
▁алкоголь	-7423
▁миллионы	-7424
▁покинуть	-7425
▁разговор	-7426
▁средства	-7427
▁боевиками	-7428
▁документы	-7429
▁предвыбор	-7430
▁прокурату	-7431
▁Азербайджа	-7432
▁подготовку	-7433
▁поддержать	-7434
▁украинские	-7435
▁Красноярске	-7436
▁Неизвестные	-7437
Ша	-7438
Баш	-7439
ПРФ	-7440
пад	-7441
Союз	-7442
вари	-7443
риан	-7444
цева	-7445
ющая	-7446
▁Dis	-7447
▁Бек	-7448
▁Сте	-7449
▁всп	-7450
▁час	-7451
Андже	-7452
изнес	-7453
рении	-7454
тории	-7455
щание	-7456
▁Lada	-7457
▁КПРФ	-7458
▁Филь	-7459
▁меры	-7460
▁ноги	-7461
▁пога	-7462
дохнов	-7463
щаться	-7464
▁Астра	-7465
▁Бренд	-7466
▁ОСАГО	-7467
▁будут	-7468
▁вслед	-7469
▁купит	-7470
▁одино	-7471
надзора	-7472
▁Дмитри	-7473
▁Крымом	-7474
▁билеты	-7475
▁метров	-7476
▁Майдана	-7477
▁покинул	-7478
▁содержа	-7479
▁Дизайнер	-7480
▁бриллиан	-7481
▁возбудил	-7482
▁открести	-7483
▁поставил	-7484
▁специаль	-7485
▁Вселенной	-7486
▁Журналист	-7487
▁Пакистане	-7488
▁обнаружил	-7489
▁празднова	-7490
▁пригласил	-7491
▁задержанных	-7492
юн	-7493
лую	-7494
мое	-7495
ппа	-7496
хен	-7497
чув	-7498
▁iT	-7499
джан	-7500
ллан	-7501
мита	-7502
▁2,5	-7503
▁Луч	-7504
▁лау	-7505
▁лжи	-7506
щению	-7507
▁Bloo	-7508
▁Свер	-7509
▁Фото	-7510
▁вред	-7511
▁выве	-7512
▁зоны	-7513
▁испы	-7514
▁опро	-7515
ченные	-7516
ющихся	-7517
▁навод	-7518
▁стары	-7519
▁строй	-7520
▁форме	-7521
▁Канаде	-7522
▁Памфил	-7523
▁боевых	-7524
▁идеаль	-7525
▁модели	-7526
▁недово	-7527
▁победе	-7528
▁приеха	-7529
▁принца	-7530
▁пришли	-7531
▁разоча	-7532
▁сектор	-7533
▁убийцы	-7534
▁уровня	-7535
▁церкви	-7536
сследова	-7537
▁знамени	-7538
▁перекры	-7539
▁пожелал	-7540
▁полномо	-7541
▁участии	-7542
▁Минздрав	-7543
▁высмеяли	-7544
▁квартире	-7545
▁произошло	-7546
▁бизнесмена	-7547
▁отношениях	-7548
▁украинском	-7549
▁Минпромторг	-7550
▁истребитель	-7551
▁Днепропетров	-7552
ld	-7553
ry	-7554
ony	-7555
бав	-7556
жки	-7557
▁45	-7558
▁Хе	-7559
▁цы	-7560
Золо	-7561
▁бал	-7562
▁мэр	-7563
▁ори	-7564
▁пау	-7565
▁рэп	-7566
▁фин	-7567
mberg	-7568
ймери	-7569
▁нара	-7570
▁упро	-7571
ймериз	-7572
▁лишил	-7573
▁показ	-7574
▁хиджа	-7575
ристиан	-7576
▁Нориль	-7577
▁аварий	-7578
▁красно	-7579
▁меньше	-7580
▁олигар	-7581
▁сломал	-7582
▁спасти	-7583
▁Bentley	-7584
▁Женщина	-7585
▁Швейцар	-7586
▁перенес	-7587
▁товаров	-7588
Барселоны	-7589
Уралвагон	-7590
▁детского	-7591
▁началась	-7592
▁похвалил	-7593
▁расстреляли	-7594
▁американские	-7595
▁опубликовали	-7596
▁столкновении	-7597
▁Великобритания	-7598
Ви	-7599
ike	-7600
tor	-7601
оци	-7602
▁Bo	-7603
▁ты	-7604
▁фу	-7605
unes	-7606
овед	-7607
тику	-7608
тину	-7609
шель	-7610
▁Вос	-7611
▁Ель	-7612
▁Кру	-7613
▁Сек	-7614
▁кле	-7615
▁пиц	-7616
▁рав	-7617
▁чув	-7618
валов	-7619
ением	-7620
кинфе	-7621
ссера	-7622
▁Life	-7623
▁Боец	-7624
▁Сама	-7625
▁Туни	-7626
▁всем	-7627
▁иска	-7628
▁силы	-7629
▁Джоли	-7630
▁Ерева	-7631
▁актри	-7632
▁бомбе	-7633
▁закро	-7634
▁колон	-7635
▁косме	-7636
▁облом	-7637
▁рядом	-7638
▁серий	-7639
▁хакер	-7640
Формулы	-7641
▁Airbus	-7642
▁iTunes	-7643
▁Модель	-7644
▁врачей	-7645
▁выйдет	-7646
▁карика	-7647
▁лондон	-7648
▁мемори	-7649
▁мечети	-7650
▁молоды	-7651
▁осудил	-7652
▁планов	-7653
▁посмея	-7654
▁судьбе	-7655
▁туалет	-7656
▁футбол	-7657
▁Воронен	-7658
▁Оренбур	-7659
▁Ростури	-7660
▁заверши	-7661
▁историю	-7662
▁комитет	-7663
▁корабля	-7664
▁обстрел	-7665
▁откроют	-7666
▁урагана	-7667
▁Японский	-7668
▁отпустили	-7669
▁Ростовской	-7670
▁обнаружила	-7671
▁освободить	-7672
▁рождествен	-7673
▁заблокировал	-7674
▁сотрудничество	-7675
БК	-7676
МС	-7677
оз	-7678
рс	-7679
сф	-7680
тт	-7681
ach	-7682
вец	-7683
дли	-7684
жан	-7685
зап	-7686
клу	-7687
мал	-7688
сит	-7689
▁65	-7690
тинг	-7691
шина	-7692
▁800	-7693
▁Mar	-7694
▁Tes	-7695
▁Бли	-7696
▁Дет	-7697
▁Кто	-7698
▁ЮАР	-7699
жению	-7700
ничью	-7701
рикан	-7702
риста	-7703
▁Chan	-7704
▁Вьет	-7705
▁Сити	-7706
▁ваго	-7707
▁выше	-7708
▁кофе	-7709
▁наме	-7710
▁трой	-7711
бивший	-7712
зовать	-7713
литься	-7714
развед	-7715
▁Пожар	-7716
▁имена	-7717
▁карту	-7718
▁объем	-7719
Адмирал	-7720
▁Газета	-7721
▁глазах	-7722
▁диноза	-7723
▁нацист	-7724
▁обыски	-7725
▁памяти	-7726
▁третье	-7727
▁фунтов	-7728
ционеров	-7729
▁Ярослав	-7730
▁материа	-7731
▁наличие	-7732
▁отметил	-7733
▁системе	-7734
▁страхов	-7735
▁эмбарго	-7736
▁Туропера	-7737
▁инфляции	-7738
▁обжалова	-7739
▁политику	-7740
▁посвятил	-7741
▁исключили	-7742
▁российско	-7743
▁Татарстане	-7744
▁начальника	-7745
▁отравления	-7746
▁приложение	-7747
▁рассмотрит	-7748
▁неизвестные	-7749
▁пассажирский	-7750
Co	-7751
ee	-7752
ИБ	-7753
хэ	-7754
мбл	-7755
мит	-7756
ьез	-7757
▁2,	-7758
▁ир	-7759
жила	-7760
тиву	-7761
▁бун	-7762
▁важ	-7763
▁рам	-7764
▁циф	-7765
Йорка	-7766
носец	-7767
стого	-7768
▁Пять	-7769
▁коме	-7770
▁леги	-7771
▁окна	-7772
▁сове	-7773
▁Tesla	-7774
▁карты	-7775
▁поджо	-7776
▁преми	-7777
▁февра	-7778
дителем	-7779
министр	-7780
нувшего	-7781
ставлен	-7782
▁Акинфе	-7783
▁Группа	-7784
▁Минюст	-7785
▁Сергей	-7786
▁перепи	-7787
▁экспер	-7788
американ	-7789
▁Нобелев	-7790
▁Продажи	-7791
▁волейбо	-7792
▁назвало	-7793
▁подняли	-7794
▁строить	-7795
▁Башкирии	-7796
▁досрочно	-7797
▁избиение	-7798
▁обыграла	-7799
▁Аргентины	-7800
▁Мосгорсуд	-7801
▁Парламент	-7802
▁Создатель	-7803
▁Вашингтоне	-7804
▁освобождении	-7805
▁приватизации	-7806
▁ликвидировали	-7807
АН	-7808
Ал	-7809
йт	-7810
▁р	-7811
con	-7812
дем	-7813
пах	-7814
сян	-7815
▁Un	-7816
▁ЕГ	-7817
Бава	-7818
Роса	-7819
воде	-7820
дида	-7821
мура	-7822
печа	-7823
стят	-7824
таре	-7825
▁Sup	-7826
▁Зна	-7827
▁бег	-7828
говой	-7829
дется	-7830
оволь	-7831
синба	-7832
финал	-7833
хачка	-7834
▁Ferr	-7835
▁Жена	-7836
▁было	-7837
▁льго	-7838
Победа	-7839
федера	-7840
ченный	-7841
▁Подро	-7842
▁агент	-7843
▁водки	-7844
▁вынес	-7845
▁интим	-7846
▁крови	-7847
▁поуча	-7848
▁судеб	-7849
▁флага	-7850
▁флота	-7851
▁Исинба	-7852
▁аресте	-7853
▁делать	-7854
▁зависи	-7855
▁одержа	-7856
▁призем	-7857
▁самыми	-7858
▁связях	-7859
▁фальши	-7860
▁Берлине	-7861
▁вечерин	-7862
▁покупки	-7863
▁похищен	-7864
▁теракты	-7865
▁введения	-7866
▁магазина	-7867
▁ответить	-7868
▁простран	-7869
▁Bloomberg	-7870
▁покемонов	-7871
▁принимать	-7872
▁американца	-7873
▁завершении	-7874
▁беспилотник	-7875
▁заподозрила	-7876
▁компенсации	-7877
▁направления	-7878
▁участвовать	-7879
жий	-7880
▁МА	-7881
ИБДД	-7882
емой	-7883
скре	-7884
тела	-7885
тков	-7886
▁Wor	-7887
▁Бей	-7888
▁Ниц	-7889
▁Поч	-7890
▁зат	-7891
▁лед	-7892
везды	-7893
джера	-7894
сквер	-7895
счита	-7896
▁Nike	-7897
▁Блат	-7898
▁Джек	-7899
▁Папа	-7900
▁Хака	-7901
▁госи	-7902
▁доби	-7903
▁мона	-7904
▁напи	-7905
▁олен	-7906
▁отре	-7907
▁путе	-7908
иллари	-7909
украин	-7910
ческом	-7911
▁Спаса	-7912
▁Тбили	-7913
▁автор	-7914
▁минут	-7915
▁облож	-7916
▁озабо	-7917
▁света	-7918
▁трибу	-7919
▁ягоди	-7920
▁инициа	-7921
▁прибыл	-7922
▁Елизаве	-7923
▁Найдены	-7924
▁боевики	-7925
▁конкурс	-7926
▁моделей	-7927
▁прибыли	-7928
▁собрали	-7929
▁спектак	-7930
▁Британка	-7931
▁Норвегии	-7932
▁Объяснен	-7933
▁виновным	-7934
▁месторож	-7935
▁победила	-7936
▁поставку	-7937
▁санкциях	-7938
▁спасения	-7939
▁тренером	-7940
▁экстради	-7941
▁Участники	-7942
▁любителей	-7943
▁наказания	-7944
▁откажется	-7945
▁праймериз	-7946
▁претенден	-7947
▁пропустит	-7948
▁транспорт	-7949
▁экстренно	-7950
io	-7951
ss	-7952
йо	-7953
ану	-7954
атр	-7955
губ	-7956
ллю	-7957
тео	-7958
▁Фа	-7959
длов	-7960
етра	-7961
пали	-7962
пери	-7963
хина	-7964
▁дел	-7965
▁ква	-7966
▁наи	-7967
▁ску	-7968
▁эро	-7969
еремо	-7970
совет	-7971
▁Стро	-7972
▁боец	-7973
▁обой	-7974
▁оспо	-7975
▁рель	-7976
▁язык	-7977
версан	-7978
мского	-7979
щениях	-7980
▁сайта	-7981
▁уника	-7982
низации	-7983
области	-7984
террори	-7985
фикацию	-7986
▁Бизнес	-7987
▁Канады	-7988
▁заморо	-7989
▁пересе	-7990
▁поднял	-7991
▁привез	-7992
▁школах	-7993
рестился	-7994
▁Хиллари	-7995
▁воспита	-7996
▁корпора	-7997
▁свободу	-7998
▁тенниси	-7999
▁успешно	-8000
▁Водитель	-8001
▁Филиппин	-8002
▁заменить	-8003
▁качестве	-8004
▁массовой	-8005
▁отправят	-8006
▁продлили	-8007
▁санкциями	-8008
▁отказалось	-8009
▁увеличилось	-8010
▁опубликовала	-8011
▁происхождение	-8012
▁ответственности	-8013
бал	-8014
йки	-8015
пли	-8016
рма	-8017
▁эс	-8018
деры	-8019
дуро	-8020
маты	-8021
шему	-8022
янка	-8023
▁Бен	-8024
▁каб	-8025
▁опы	-8026
болез	-8027
креди	-8028
▁Карл	-8029
▁Отец	-8030
▁Туле	-8031
▁кури	-8032
▁мяса	-8033
ложила	-8034
▁Букме	-8035
▁Тайва	-8036
▁воров	-8037
▁одном	-8038
▁убежи	-8039
▁фабри	-8040
норманд	-8041
▁Chanel	-8042
▁Мадуро	-8043
▁Физики	-8044
▁бездом	-8045
▁допрос	-8046
▁кредит	-8047
▁письмо	-8048
▁прогре	-8049
▁распла	-8050
▁свадеб	-8051
▁черных	-8052
▁Востоке	-8053
▁блокады	-8054
▁партнер	-8055
▁Минтранс	-8056
▁возросло	-8057
▁крымских	-8058
▁посмотре	-8059
▁разведки	-8060
▁стадионе	-8061
▁стрельбе	-8062
▁терактах	-8063
▁допустила	-8064
▁перенесли	-8065
▁посчитали	-8066
▁разрешить	-8067
▁сократить	-8068
▁школьника	-8069
▁Ленобласти	-8070
▁космодрома	-8071
▁пропавшего	-8072
▁выступление	-8073
▁полицейским	-8074
▁сторонников	-8075
ft	-8076
iv	-8077
ox	-8078
ru	-8079
Ку	-8080
СМ	-8081
Roy	-8082
гил	-8083
зли	-8084
▁Wh	-8085
▁ТЦ	-8086
кову	-8087
ллар	-8088
тиве	-8089
ятия	-8090
▁War	-8091
▁Ана	-8092
▁Оче	-8093
▁Роу	-8094
▁Чет	-8095
▁бри	-8096
▁изо	-8097
ершен	-8098
ковые	-8099
тонос	-8100
торам	-8101
▁Кари	-8102
▁Мара	-8103
▁Трое	-8104
▁Швед	-8105
▁гово	-8106
▁евре	-8107
▁удво	-8108
феропо	-8109
▁Rolls	-8110
▁ГИБДД	-8111
▁Горба	-8112
▁Треть	-8113
▁домой	-8114
▁дорог	-8115
▁драке	-8116
▁защит	-8117
▁матер	-8118
▁Греция	-8119
▁Обвиня	-8120
▁повтор	-8121
ференции	-8122
▁Владими	-8123
▁Голодец	-8124
▁вдохнов	-8125
▁генерал	-8126
▁красоты	-8127
▁оценила	-8128
▁спутник	-8129
▁техники	-8130
▁Михалков	-8131
▁директор	-8132
▁кампании	-8133
▁контроля	-8134
▁кораблей	-8135
▁назначен	-8136
▁договорен	-8137
▁обвинений	-8138
▁промышлен	-8139
Евровидение	-8140
▁антироссийские	-8141
Те	-8142
ang	-8143
▁Wi	-8144
▁Уи	-8145
▁оф	-8146
баты	-8147
бует	-8148
гере	-8149
един	-8150
емые	-8151
лада	-8152
рега	-8153
стар	-8154
хора	-8155
▁Моу	-8156
▁Пан	-8157
▁Эль	-8158
▁опо	-8159
Royce	-8160
берут	-8161
енкон	-8162
ствах	-8163
часть	-8164
▁Тыся	-8165
▁даге	-8166
▁егип	-8167
▁огне	-8168
▁поря	-8169
▁спел	-8170
вшуюся	-8171
говора	-8172
процен	-8173
▁Дуров	-8174
▁Немец	-8175
▁Помощ	-8176
▁Фильм	-8177
▁вызов	-8178
▁заказ	-8179
▁марта	-8180
▁остан	-8181
▁парке	-8182
льников	-8183
ступать	-8184
▁Макаре	-8185
▁вернул	-8186
▁мотива	-8187
▁принце	-8188
▁пришел	-8189
▁робота	-8190
▁травмы	-8191
▁угрожа	-8192
▁уровне	-8193
днестров	-8194
тический	-8195
▁Поттера	-8196
▁Росавиа	-8197
▁блогера	-8198
▁возраст	-8199
▁доброво	-8200
▁доходов	-8201
▁рубежом	-8202
▁урегули	-8203
▁экологи	-8204
▁Северная	-8205
▁испытали	-8206
▁туристам	-8207
▁Каталонии	-8208
▁голодовку	-8209
▁забросали	-8210
▁спецслужб	-8211
▁Российским	-8212
▁информации	-8213
▁уголовного	-8214
▁международный	-8215
Fi	-8216
НК	-8217
бр	-8218
ney	-8219
Нор	-8220
ено	-8221
зан	-8222
мяг	-8223
стя	-8224
▁ПС	-8225
бине	-8226
веро	-8227
дист	-8228
ерка	-8229
кини	-8230
нопо	-8231
овая	-8232
орги	-8233
рога	-8234
▁250	-8235
▁Вне	-8236
▁ЕГЭ	-8237
▁Кра	-8238
▁Лос	-8239
▁Тол	-8240
▁наш	-8241
▁юго	-8242
надле	-8243
сской	-8244
филов	-8245
▁Доку	-8246
▁Кейт	-8247
▁вкла	-8248
▁гимн	-8249
▁заму	-8250
▁имен	-8251
▁меда	-8252
▁псих	-8253
▁топо	-8254
▁фрон	-8255
▁янва	-8256
Единой	-8257
рского	-8258
сельхо	-8259
▁Резер	-8260
▁ролик	-8261
▁убить	-8262
ционные	-8263
▁Сербии	-8264
▁Славян	-8265
▁изобре	-8266
▁обокра	-8267
▁рамках	-8268
▁собаки	-8269
▁ставку	-8270
▁статус	-8271
Матильды	-8272
▁область	-8273
▁пилотов	-8274
▁подверг	-8275
▁приобре	-8276
▁пустить	-8277
▁свадьбе	-8278
▁столице	-8279
▁турнире	-8280
билизации	-8281
▁Гагарина	-8282
▁Кемерове	-8283
▁торговли	-8284
▁трансген	-8285
▁посетовал	-8286
▁Болельщики	-8287
▁реальности	-8288
▁открестился	-8289
▁путешествен	-8290
▁пограничники	-8291
▁невозможности	-8292
2-	-8293
App	-8294
ats	-8295
жку	-8296
нка	-8297
▁ad	-8298
езда	-8299
рака	-8300
тале	-8301
теле	-8302
теро	-8303
тное	-8304
фото	-8305
щину	-8306
▁Ama	-8307
▁Боб	-8308
▁ДПС	-8309
▁Дом	-8310
▁вор	-8311
▁эмо	-8312
енком	-8313
лагом	-8314
льцев	-8315
паний	-8316
работ	-8317
рекла	-8318
шелся	-8319
▁Гене	-8320
▁блок	-8321
▁мето	-8322
▁спин	-8323
дающий	-8324
кового	-8325
▁Ленин	-8326
▁Макро	-8327
▁Оллан	-8328
▁Черче	-8329
▁армян	-8330
▁вывез	-8331
▁домов	-8332
▁коров	-8333
▁прото	-8334
▁роман	-8335
▁танки	-8336
соборон	-8337
▁adidas	-8338
▁Францу	-8339
▁вымога	-8340
▁дважды	-8341
▁доходы	-8342
▁камеру	-8343
▁кризис	-8344
▁оборон	-8345
▁обязал	-8346
▁полном	-8347
▁пропал	-8348
▁флагом	-8349
лировать	-8350
▁Кандида	-8351
▁Учитель	-8352
▁главной	-8353
▁детской	-8354
▁коммуни	-8355
▁назвать	-8356
▁острова	-8357
▁позицию	-8358
▁предпоч	-8359
▁свадьбу	-8360
▁снизить	-8361
▁вспомнил	-8362
▁здоровья	-8363
▁зоопарке	-8364
▁космонав	-8365
▁ресторан	-8366
▁Александр	-8367
▁Минсельхо	-8368
▁Поветкина	-8369
▁превысило	-8370
▁Московская	-8371
▁Футболисты	-8372
▁Неизвестный	-8373
▁ограничения	-8374
▁деятельность	-8375
▁Правозащитники	-8376
-20	-8377
ack	-8378
При	-8379
сна	-8380
чах	-8381
чие	-8382
▁55	-8383
▁RT	-8384
▁ЖК	-8385
eing	-8386
emen	-8387
деше	-8388
линг	-8389
мага	-8390
щему	-8391
▁Лоу	-8392
▁СКА	-8393
▁вре	-8394
▁кан	-8395
▁лиф	-8396
▁усы	-8397
илась	-8398
ляция	-8399
парта	-8400
▁Непа	-8401
▁Стив	-8402
▁Турк	-8403
▁визы	-8404
▁дель	-8405
▁игре	-8406
▁ирак	-8407
▁пони	-8408
▁тали	-8409
ложить	-8410
мобиль	-8411
нулась	-8412
писала	-8413
▁Воору	-8414
▁Литве	-8415
▁водой	-8416
▁вошли	-8417
▁выйти	-8418
▁двоих	-8419
▁едино	-8420
▁квали	-8421
▁курса	-8422
▁обиде	-8423
▁образ	-8424
▁судно	-8425
▁толпу	-8426
востоке	-8427
зидента	-8428
ствовал	-8429
▁Boeing	-8430
▁Disney	-8431
▁Гонкон	-8432
▁бывшей	-8433
▁геноци	-8434
▁носить	-8435
▁облига	-8436
▁обруши	-8437
▁севере	-8438
▁сканда	-8439
▁тысячу	-8440
▁ударил	-8441
▁церков	-8442
зировать	-8443
▁Генштаб	-8444
▁Лаврова	-8445
▁Тбилиси	-8446
▁ассоциа	-8447
Северного	-8448
▁закрытии	-8449
▁наградил	-8450
▁палестин	-8451
▁подарили	-8452
▁потеряли	-8453
▁потратит	-8454
▁председа	-8455
▁развитие	-8456
▁сепарати	-8457
▁телеведу	-8458
▁поделился	-8459
▁проигнори	-8460
▁россиянки	-8461
▁Мурманской	-8462
▁документов	-8463
▁пенсионных	-8464
▁присутстви	-8465
▁телеканала	-8466
▁терроризма	-8467
▁посетителей	-8468
▁Красноярском	-8469
▁гендиректора	-8470
▁Екатеринбурга	-8471
ank	-8472
ood	-8473
ota	-8474
Чер	-8475
пен	-8476
сем	-8477
▁ау	-8478
▁зе	-8479
гина	-8480
дмур	-8481
ллоу	-8482
▁Gel	-8483
▁зао	-8484
▁лов	-8485
▁экс	-8486
меров	-8487
пасов	-8488
ронов	-8489
шкина	-8490
юарде	-8491
▁Audi	-8492
▁длин	-8493
▁мате	-8494
▁ногу	-8495
▁пени	-8496
▁поце	-8497
▁преи	-8498
▁смяг	-8499
ewagen	-8500
ингапу	-8501
провод	-8502
▁бойца	-8503
▁гонки	-8504
▁перес	-8505
▁праве	-8506
▁снего	-8507
▁сочла	-8508
▁судья	-8509
▁Активи	-8510
▁Нижнем	-8511
▁внесли	-8512
▁группа	-8513
▁платье	-8514
▁подклю	-8515
▁приста	-8516
▁прошла	-8517
▁сменил	-8518
▁судьбу	-8519
▁указал	-8520
совершен	-8521
▁Абхазии	-8522
▁Зюганов	-8523
▁Португа	-8524
▁одобрили	-8525
▁Кузнецова	-8526
▁Назарбаев	-8527
▁Памфилова	-8528
▁наркотики	-8529
▁поставили	-8530
▁чемпионка	-8531
▁школьница	-8532
▁Волгограде	-8533
▁Центробанк	-8534
▁американец	-8535
▁китайского	-8536
▁крупнейших	-8537
▁полковника	-8538
▁спецслужбы	-8539
▁терроризме	-8540
▁требования	-8541
▁Вороненкова	-8542
▁наркотиками	-8543
▁Владивостоке	-8544
▁Организаторы	-8545
EA	-8546
der	-8547
iki	-8548
ral	-8549
жим	-8550
маз	-8551
пят	-8552
тае	-8553
шмо	-8554
▁43	-8555
▁Гю	-8556
▁ЧЕ	-8557
Лени	-8558
арда	-8559
дежи	-8560
ксов	-8561
▁90-	-8562
▁Ali	-8563
▁Bur	-8564
▁Gal	-8565
▁Гай	-8566
▁Иса	-8567
▁КНР	-8568
▁всю	-8569
▁гол	-8570
▁зме	-8571
можен	-8572
нифер	-8573
▁Dior	-8574
▁Дуба	-8575
▁Шипу	-8576
▁дети	-8577
▁знак	-8578
▁иску	-8579
▁флот	-8580
▁чемо	-8581
контро	-8582
рожден	-8583
ссиона	-8584
▁World	-8585
▁видом	-8586
▁докла	-8587
▁жесто	-8588
▁повре	-8589
▁титул	-8590
▁турпо	-8591
▁языке	-8592
нокорей	-8593
фестива	-8594
ченного	-8595
▁Geland	-8596
▁Ленина	-8597
▁Норвеж	-8598
▁Осетии	-8599
▁дороге	-8600
▁лайнер	-8601
▁оборуд	-8602
▁примет	-8603
▁францу	-8604
▁ходить	-8605
▁экспор	-8606
▁Ереване	-8607
▁Румынии	-8608
▁Флориде	-8609
▁гомосек	-8610
▁помогут	-8611
▁прибыль	-8612
▁русский	-8613
▁турнира	-8614
▁украден	-8615
▁грузовик	-8616
▁дагестан	-8617
▁диверсан	-8618
▁передаче	-8619
▁Дженнифер	-8620
▁Луганской	-8621
▁инцидента	-8622
▁китайских	-8623
▁модернизи	-8624
▁подписали	-8625
▁режиссера	-8626
▁резолюцию	-8627
▁турецкого	-8628
▁британской	-8629
▁применении	-8630
▁Приднестров	-8631
▁разобраться	-8632
▁сексуальных	-8633
▁Gelandewagen	-8634
▁популярности	-8635
▁предполагаемого	-8636
MA	-8637
ез	-8638
ret	-8639
Мир	-8640
бве	-8641
кле	-8642
лая	-8643
хал	-8644
▁Зи	-8645
hini	-8646
ергю	-8647
лкой	-8648
рите	-8649
сман	-8650
ьюри	-8651
▁20-	-8652
▁ВДВ	-8653
▁Евг	-8654
▁Пит	-8655
▁зим	-8656
▁меж	-8657
▁ноя	-8658
▁ору	-8659
▁сик	-8660
дство	-8661
енные	-8662
платы	-8663
ринью	-8664
сного	-8665
тория	-8666
▁Lamb	-8667
▁Wiki	-8668
▁Асад	-8669
▁Ники	-8670
▁апре	-8671
▁мета	-8672
▁осла	-8673
▁отда	-8674
▁пару	-8675
▁плов	-8676
▁физи	-8677
▁швей	-8678
▁школ	-8679
вшимся	-8680
зовали	-8681
ступил	-8682
▁Омске	-8683
▁Фергю	-8684
▁гипер	-8685
▁обход	-8686
▁одним	-8687
▁рэпер	-8688
▁улицы	-8689
▁ухода	-8690
orghini	-8691
▁Falcon	-8692
▁Бывшая	-8693
▁Караба	-8694
▁Китаец	-8695
▁вируса	-8696
▁звезда	-8697
▁лихора	-8698
▁минима	-8699
▁откров	-8700
▁похити	-8701
▁станце	-8702
▁церемо	-8703
▁черный	-8704
▁Актриса	-8705
▁Задержа	-8706
▁Майдане	-8707
▁актриса	-8708
▁детских	-8709
▁кокаина	-8710
▁культур	-8711
▁роботов	-8712
▁скандал	-8713
Барселона	-8714
▁Моуринью	-8715
▁захотела	-8716
▁младенца	-8717
▁открытия	-8718
▁преимуще	-8719
▁разрешат	-8720
▁устроила	-8721
▁Роскосмос	-8722
▁пригласили	-8723
▁футбольный	-8724
▁Lamborghini	-8725
▁образования	-8726
▁последствиях	-8727
▁авиакатастрофе	-8728
av	-8729
ио	-8730
жев	-8731
тип	-8732
▁Ar	-8733
▁Da	-8734
Боль	-8735
Ведо	-8736
голь	-8737
гура	-8738
зино	-8739
кому	-8740
разд	-8741
рена	-8742
сный	-8743
ссей	-8744
тном	-8745
цких	-8746
▁плю	-8747
ecret	-8748
дению	-8749
зовой	-8750
зовых	-8751
лешмо	-8752
связи	-8753
▁Porn	-8754
▁Изби	-8755
▁Стан	-8756
▁выяс	-8757
▁диви	-8758
▁кров	-8759
▁лица	-8760
▁офиц	-8761
▁свет	-8762
▁уход	-8763
йнштей	-8764
▁Джона	-8765
▁Около	-8766
▁Семья	-8767
▁альбо	-8768
▁гряду	-8769
▁дефол	-8770
▁ехать	-8771
▁кадры	-8772
▁отече	-8773
▁прину	-8774
▁ранил	-8775
▁самое	-8776
губерна	-8777
▁Джордж	-8778
▁Доллар	-8779
▁Маккей	-8780
▁Мосула	-8781
▁Японцы	-8782
▁достиг	-8783
▁дохода	-8784
▁курорт	-8785
▁литера	-8786
▁образе	-8787
▁палата	-8788
▁подума	-8789
▁присты	-8790
▁сезоне	-8791
Башнефти	-8792
ничество	-8793
нователь	-8794
▁Капитан	-8795
▁Махачка	-8796
▁Установ	-8797
▁выгнали	-8798
▁жителям	-8799
▁карьере	-8800
▁массово	-8801
▁открыла	-8802
▁отпразд	-8803
▁продаст	-8804
▁свободы	-8805
рованного	-8806
▁Немецкие	-8807
▁Раскрыто	-8808
▁виновных	-8809
▁достигло	-8810
▁квартиру	-8811
▁отменила	-8812
▁упавшего	-8813
▁Букмекеры	-8814
▁Паралимпи	-8815
▁доставили	-8816
▁хоккеиста	-8817
▁Посольство	-8818
▁пенсионеров	-8819
▁северокорей	-8820
▁причастность	-8821
▁Серебренникова	-8822
▁военнослужащих	-8823
ax	-8824
lo	-8825
Му	-8826
all	-8827
деш	-8828
зму	-8829
ици	-8830
фан	-8831
-300	-8832
емым	-8833
кинг	-8834
льги	-8835
нину	-8836
нную	-8837
роды	-8838
шено	-8839
▁Бри	-8840
▁Гей	-8841
▁Гол	-8842
▁Гри	-8843
▁Зим	-8844
▁Лип	-8845
▁вес	-8846
▁эли	-8847
винов	-8848
левой	-8849
летия	-8850
ллига	-8851
менко	-8852
разде	-8853
стром	-8854
▁iPad	-8855
▁Азии	-8856
▁Грой	-8857
▁Илон	-8858
▁Каря	-8859
▁абор	-8860
▁указ	-8861
гладеш	-8862
женные	-8863
лотова	-8864
ренный	-8865
щества	-8866
▁Солне	-8867
▁Уимбл	-8868
▁вклад	-8869
▁госиз	-8870
▁долго	-8871
▁корот	-8872
▁пошел	-8873
▁сумки	-8874
▁ювели	-8875
▁автора	-8876
▁блогер	-8877
▁импорт	-8878
▁механи	-8879
▁начать	-8880
▁первых	-8881
▁пятого	-8882
▁фанаты	-8883
▁Десятки	-8884
▁авианос	-8885
▁болезни	-8886
▁взрывов	-8887
▁властям	-8888
▁космосе	-8889
▁помогли	-8890
▁русской	-8891
▁Мексикан	-8892
▁Украинцы	-8893
▁выиграли	-8894
▁отложили	-8895
▁подлодки	-8896
▁сенатора	-8897
▁нарушений	-8898
▁откроется	-8899
▁очередной	-8900
▁паралимпи	-8901
▁поведение	-8902
▁построить	-8903
▁прекратил	-8904
▁продоволь	-8905
▁разрешила	-8906
▁ресторане	-8907
▁собралась	-8908
▁поддержала	-8909
▁протаранил	-8910
▁Французские	-8911
▁Таджикистане	-8912
▁предупредила	-8913
-16	-8914
lus	-8915
КАД	-8916
вяз	-8917
гос	-8918
жья	-8919
ило	-8920
уна	-8921
хах	-8922
чук	-8923
юзе	-8924
▁75	-8925
▁Пя	-8926
▁сэ	-8927
алка	-8928
жерт	-8929
нева	-8930
роди	-8931
▁12-	-8932
▁Бор	-8933
▁Ван	-8934
▁Тар	-8935
▁Хер	-8936
▁деб	-8937
▁рок	-8938
▁хле	-8939
жнего	-8940
лливу	-8941
ловек	-8942
плачи	-8943
чению	-8944
чиной	-8945
▁араб	-8946
▁арен	-8947
▁инде	-8948
▁одну	-8949
▁полю	-8950
▁посы	-8951
▁снай	-8952
Правый	-8953
енного	-8954
тологи	-8955
центра	-8956
▁Иране	-8957
▁Нефть	-8958
▁Перми	-8959
▁Удмур	-8960
▁взрос	-8961
▁выжил	-8962
▁серию	-8963
▁страш	-8964
▁стрем	-8965
ерусали	-8966
▁Шнуров	-8967
▁аварию	-8968
▁бассей	-8969
▁генпро	-8970
▁доллар	-8971
▁искать	-8972
▁коллег	-8973
▁обезья	-8974
▁пойдет	-8975
килограм	-8976
▁Минтруд	-8977
▁главных	-8978
▁головой	-8979
▁открыть	-8980
▁препода	-8981
▁экспери	-8982
Исламское	-8983
▁Зеландии	-8984
▁Свердлов	-8985
▁источник	-8986
▁конфликт	-8987
▁мирового	-8988
▁постанов	-8989
▁скорости	-8990
▁супермар	-8991
▁Бангладеш	-8992
▁Владимира	-8993
▁Симферопо	-8994
▁возглавит	-8995
▁повышении	-8996
▁рекордный	-8997
▁советских	-8998
▁Черногории	-8999
▁директоров	-9000
▁задумалась	-9001
▁опровергло	-9002
▁пересмотре	-9003
▁чиновникам	-9004
▁предпринима	-9005
▁руководства	-9006
iss	-9007
mer	-9008
Каи	-9009
вки	-9010
кта	-9011
сам	-9012
▁Ов	-9013
▁Ур	-9014
▁ке	-9015
ссом	-9016
стит	-9017
тают	-9018
тием	-9019
▁ЖКХ	-9020
▁Рек	-9021
▁ЮКО	-9022
брала	-9023
лером	-9024
лкова	-9025
стила	-9026
стори	-9027
щений	-9028
▁Калу	-9029
▁Кино	-9030
▁Маль	-9031
▁архи	-9032
▁вино	-9033
▁зени	-9034
▁рейс	-9035
▁силу	-9036
▁стек	-9037
▁трол	-9038
▁ушла	-9039
▁штаб	-9040
группы	-9041
зового	-9042
оплачи	-9043
павший	-9044
▁Кержа	-9045
▁Новая	-9046
▁Рожде	-9047
▁детса	-9048
▁контр	-9049
▁оттен	-9050
▁перво	-9051
▁судью	-9052
▁эволю	-9053
Анджеле	-9054
страцию	-9055
▁Secret	-9056
▁Боксер	-9057
▁Джонни	-9058
▁Липниц	-9059
▁Овечки	-9060
▁Спикер	-9061
▁Стивен	-9062
▁выходе	-9063
▁инспек	-9064
▁научат	-9065
▁обстоя	-9066
▁поиски	-9067
▁сделки	-9068
▁службу	-9069
▁трассе	-9070
▁Ferrari	-9071
▁Астахов	-9072
▁Девушка	-9073
▁интерес	-9074
▁исполни	-9075
▁написал	-9076
▁недоста	-9077
▁платфор	-9078
▁Мэйуэзер	-9079
▁осталась	-9080
▁отклонил	-9081
▁потеряла	-9082
▁увеличил	-9083
▁Следствие	-9084
▁конфедера	-9085
▁конфликте	-9086
▁получение	-9087
▁сохранить	-9088
▁экономику	-9089
▁Журналисты	-9090
▁Определены	-9091
▁Российскую	-9092
▁остановить	-9093
▁отравились	-9094
▁посольство	-9095
▁расстрелял	-9096
▁священника	-9097
▁Итальянский	-9098
▁Олимпийский	-9099
▁похвастался	-9100
▁разработали	-9101
▁приостановил	-9102
▁употреблении	-9103
▁существование	-9104
AS	-9105
gin	-9106
ksw	-9107
мел	-9108
орк	-9109
пря	-9110
▁2»	-9111
▁De	-9112
Рост	-9113
добы	-9114
ждый	-9115
кину	-9116
льда	-9117
льце	-9118
млад	-9119
номы	-9120
носи	-9121
руга	-9122
трак	-9123
▁нес	-9124
▁реб	-9125
Ленин	-9126
йской	-9127
летие	-9128
тиков	-9129
шками	-9130
▁Трех	-9131
▁гала	-9132
▁зоне	-9133
▁идеи	-9134
▁копи	-9135
▁края	-9136
▁цель	-9137
Ростов	-9138
чением	-9139
▁Белых	-9140
▁Врачи	-9141
▁Защит	-9142
▁Турец	-9143
▁казах	-9144
▁отеле	-9145
▁перео	-9146
▁покры	-9147
▁попла	-9148
▁фигур	-9149
kswagen	-9150
▁Анталь	-9151
▁Жителя	-9152
▁Минком	-9153
▁авиаби	-9154
▁бывших	-9155
▁внезап	-9156
▁газеты	-9157
▁заказа	-9158
▁захоро	-9159
▁иннова	-9160
▁матчей	-9161
▁мусора	-9162
▁осквер	-9163
▁турнир	-9164
▁Жителям	-9165
▁Китайцы	-9166
▁Первого	-9167
▁Сингапу	-9168
▁отстран	-9169
▁сыграть	-9170
▁Болгарии	-9171
▁Владелец	-9172
▁Колумбии	-9173
▁Плющенко	-9174
▁Средизем	-9175
▁библиоте	-9176
▁жертвами	-9177
▁комменти	-9178
▁название	-9179
▁получить	-9180
▁Арестован	-9181
▁Венесуэлы	-9182
▁взорвался	-9183
▁нарушение	-9184
▁православ	-9185
▁смартфона	-9186
▁спутников	-9187
▁Volkswagen	-9188
▁Александра	-9189
▁Росгвардии	-9190
▁избавиться	-9191
▁усомнились	-9192
▁штрафовать	-9193
▁предостерег	-9194
▁российскому	-9195
▁Владивостока	-9196
▁Подозреваемый	-9197
17	-9198
ик	-9199
Гар	-9200
вил	-9201
лам	-9202
рыг	-9203
джли	-9204
корд	-9205
мона	-9206
нему	-9207
ович	-9208
туре	-9209
▁Сеу	-9210
▁Сур	-9211
▁Тру	-9212
▁баш	-9213
▁вво	-9214
▁ово	-9215
зерва	-9216
зовет	-9217
ссией	-9218
тушен	-9219
▁Sony	-9220
▁Пале	-9221
▁Плот	-9222
▁Фонд	-9223
▁голу	-9224
▁жить	-9225
▁инди	-9226
▁мафи	-9227
▁танк	-9228
▁убит	-9229
atsApp	-9230
ствием	-9231
чилась	-9232
▁Новым	-9233
▁Фьюри	-9234
▁газом	-9235
▁замед	-9236
▁клубе	-9237
▁перио	-9238
▁свиде	-9239
▁судьи	-9240
▁хозяй	-9241
▁Показа	-9242
▁аналог	-9243
▁бензин	-9244
▁налога	-9245
▁народа	-9246
▁однопо	-9247
тические	-9248
тической	-9249
▁Бурятии	-9250
▁Кэмерон	-9251
▁Минфина	-9252
▁Шувалов	-9253
▁найдены	-9254
▁порядок	-9255
▁рабочих	-9256
▁составе	-9257
▁швейцар	-9258
Краснодар	-9259
▁WhatsApp	-9260
▁Таиланда	-9261
▁Тверской	-9262
▁взорвать	-9263
▁задумали	-9264
▁молодежи	-9265
▁причинах	-9266
▁торговой	-9267
▁дизайнеры	-9268
▁насчитали	-9269
▁подсчитал	-9270
▁триллиона	-9271
▁украшения	-9272
▁Московской	-9273
▁выступления	-9274
▁компенсацию	-9275
▁отстранение	-9276
▁опубликовало	-9277
BC	-9278
og	-9279
вку	-9280
кио	-9281
рыш	-9282
топ	-9283
▁СП	-9284
▁уч	-9285
фоби	-9286
ющем	-9287
▁Доб	-9288
▁ММА	-9289
▁Тка	-9290
▁дож	-9291
▁нац	-9292
▁блог	-9293
▁друж	-9294
ментов	-9295
ческим	-9296
▁Кубок	-9297
▁Ницце	-9298
▁взять	-9299
▁задол	-9300
▁комму	-9301
▁омбуд	-9302
▁сорат	-9303
▁спорт	-9304
▁суици	-9305
▁убила	-9306
▁Европа	-9307
▁Кастро	-9308
▁Силови	-9309
▁Третья	-9310
▁картин	-9311
▁полуго	-9312
▁смотре	-9313
▁уличил	-9314
кончался	-9315
▁Барсело	-9316
▁вратарь	-9317
▁заплани	-9318
▁минских	-9319
▁обвинен	-9320
▁обсудят	-9321
▁переход	-9322
▁примени	-9323
▁воздержа	-9324
▁зоопарка	-9325
▁изменить	-9326
▁китайцев	-9327
▁лекарств	-9328
▁массовую	-9329
▁неспособ	-9330
▁передачи	-9331
▁регионах	-9332
▁четверки	-9333
▁Навальный	-9334
▁заложники	-9335
▁испытаний	-9336
▁москвичей	-9337
▁спецопера	-9338
▁телеканал	-9339
▁увеличила	-9340
▁благотвори	-9341
▁отправился	-9342
▁разработке	-9343
▁Полицейский	-9344
▁миротворцев	-9345
▁Коломойского	-9346
▁авиакатастрофы	-9347
▁раскритиковала	-9348
Че	-9349
ant	-9350
Ура	-9351
жеб	-9352
зам	-9353
зья	-9354
илл	-9355
Ювен	-9356
льва	-9357
чего	-9358
▁ДНК	-9359
▁Как	-9360
▁Кен	-9361
▁Лин	-9362
▁ПСЖ	-9363
▁СПЧ	-9364
▁фло	-9365
▁фра	-9366
ванию	-9367
тером	-9368
▁Бала	-9369
▁Матч	-9370
▁Стэн	-9371
▁выго	-9372
▁заба	-9373
▁инау	-9374
▁мене	-9375
▁моду	-9376
▁мора	-9377
▁осна	-9378
▁сход	-9379
▁ужас	-9380
▁фили	-9381
▁функ	-9382
▁химо	-9383
Ювенту	-9384
ленную	-9385
торами	-9386
▁Кирко	-9387
▁Мадон	-9388
▁боксу	-9389
▁выска	-9390
▁грудь	-9391
▁матчи	-9392
▁мемом	-9393
▁свыше	-9394
▁шахте	-9395
ровался	-9396
▁Генсек	-9397
▁взятке	-9398
▁вничью	-9399
▁внутри	-9400
▁заявку	-9401
▁космос	-9402
▁подеше	-9403
▁прямой	-9404
▁рэпера	-9405
▁связал	-9406
▁съемок	-9407
▁химиче	-9408
ландский	-9409
▁Аргенти	-9410
▁Неймара	-9411
▁влиянии	-9412
▁захвате	-9413
▁научили	-9414
▁паспорт	-9415
▁портрет	-9416
▁реанима	-9417
Мистралей	-9418
▁Гендирек	-9419
▁бесполез	-9420
▁зарплате	-9421
▁инаугура	-9422
▁капитала	-9423
▁компанию	-9424
▁комплекс	-9425
▁обстрела	-9426
▁чиновник	-9427
▁Астрономы	-9428
▁Объявлены	-9429
▁батальона	-9430
▁ненависти	-9431
▁туристами	-9432
▁чиновники	-9433
▁накоплений	-9434
▁применение	-9435
▁продолжить	-9436
▁разработку	-9437
▁собственной	-9438
▁Опубликованы	-9439
▁Производитель	-9440
▁констатировал	-9441
▁расследовании	-9442
▁комментировать	-9443
▁заинтересовался	-9444
Ва	-9445
ews	-9446
int	-9447
бки	-9448
веж	-9449
лив	-9450
эль	-9451
язы	-9452
▁Ци	-9453
дере	-9454
люби	-9455
мане	-9456
поря	-9457
▁15-	-9458
▁Mon	-9459
▁Дей	-9460
▁Мэн	-9461
▁Мюн	-9462
▁био	-9463
▁дне	-9464
▁коз	-9465
▁шам	-9466
браги	-9467
льтра	-9468
нский	-9469
танья	-9470
▁МКАД	-9471
▁ввел	-9472
▁всей	-9473
▁гряз	-9474
▁деше	-9475
▁моды	-9476
▁наря	-9477
▁пиво	-9478
▁поте	-9479
▁седь	-9480
▁труп	-9481
▁убор	-9482
▁хули	-9483
▁цвет	-9484
грации	-9485
женных	-9486
▁Милли	-9487
▁Моска	-9488
▁затоп	-9489
▁накор	-9490
▁попол	-9491
▁тайну	-9492
▁торги	-9493
▁эпиде	-9494
▁Гражда	-9495
▁Ибраги	-9496
▁Ираном	-9497
▁выдать	-9498
▁лотере	-9499
▁мессен	-9500
▁пожерт	-9501
▁послом	-9502
▁продал	-9503
▁района	-9504
▁смогут	-9505
▁учений	-9506
▁Биологи	-9507
▁Римский	-9508
▁Хакасии	-9509
▁зарезал	-9510
▁пересмо	-9511
▁процесс	-9512
▁соболез	-9513
▁угрозах	-9514
▁Иерусали	-9515
▁вернется	-9516
▁военными	-9517
▁магазине	-9518
▁привлека	-9519
▁устроить	-9520
▁уточнили	-9521
▁химоружи	-9522
▁Новгороде	-9523
▁должность	-9524
▁оппозиция	-9525
▁праздники	-9526
▁претензии	-9527
▁Забайкалье	-9528
▁Коммунисты	-9529
▁Определена	-9530
▁блокировки	-9531
▁последнего	-9532
▁потенциаль	-9533
▁Минкомсвязи	-9534
▁деятельности	-9535
▁Представитель	-9536
AF	-9537
Вы	-9538
Де	-9539
Хо	-9540
нг	-9541
-25	-9542
Lea	-9543
ash	-9544
cci	-9545
Тор	-9546
гея	-9547
мми	-9548
уэр	-9549
юри	-9550
зере	-9551
йцев	-9552
мбур	-9553
тете	-9554
цина	-9555
ящих	-9556
▁Vic	-9557
▁Кол	-9558
▁Учи	-9559
▁Хью	-9560
▁дли	-9561
▁опу	-9562
Leaks	-9563
Турец	-9564
енной	-9565
кульп	-9566
рабли	-9567
▁Баку	-9568
▁Геро	-9569
▁Золо	-9570
▁Иван	-9571
▁мара	-9572
▁озву	-9573
▁орга	-9574
лизова	-9575
рована	-9576
ссекре	-9577
▁Новые	-9578
▁Сирия	-9579
▁Сотни	-9580
▁банды	-9581
▁визит	-9582
▁плана	-9583
▁повер	-9584
▁посол	-9585
▁умень	-9586
▁харак	-9587
▁эпизо	-9588
ступили	-9589
▁Victor	-9590
▁Геншта	-9591
▁Маркин	-9592
▁Парижа	-9593
▁банкро	-9594
▁вербов	-9595
▁дизайн	-9596
▁египет	-9597
▁компро	-9598
▁обзаве	-9599
▁охрану	-9600
▁продав	-9601
▁просто	-9602
▁пьяный	-9603
▁сделку	-9604
▁серьез	-9605
▁статью	-9606
▁убитых	-9607
▁убрать	-9608
▁ударов	-9609
▁Авиаком	-9610
▁Фигуран	-9611
▁обсудит	-9612
▁пятерых	-9613
▁разобла	-9614
▁сборная	-9615
▁сторону	-9616
▁течение	-9617
ственники	-9618
▁Донецкой	-9619
▁Конститу	-9620
▁Прокурор	-9621
▁Силовики	-9622
▁Слуцкого	-9623
▁взорвали	-9624
▁проверки	-9625
▁продадут	-9626
▁режиссер	-9627
▁WikiLeaks	-9628
▁кандидата	-9629
▁получения	-9630
нормандской	-9631
▁Нацгвардии	-9632
▁сокращение	-9633
▁соболезнова	-9634
▁собственный	-9635
▁высокооплачи	-9636
▁приостановила	-9637
АО	-9638
пс	-9639
-14	-9640
АСЕ	-9641
зит	-9642
кру	-9643
рие	-9644
▁Йо	-9645
▁СН	-9646
▁Хэ	-9647
▁ей	-9648
oody	-9649
Авиа	-9650
Голо	-9651
Моск	-9652
бовь	-9653
квар	-9654
лнце	-9655
спол	-9656
тащи	-9657
урка	-9658
чете	-9659
▁Игр	-9660
▁Роб	-9661
▁Рой	-9662
▁Сви	-9663
▁Уор	-9664
▁Фри	-9665
▁виш	-9666
▁вку	-9667
▁еды	-9668
▁тек	-9669
гнать	-9670
онаци	-9671
ровок	-9672
ятник	-9673
▁2020	-9674
▁Mail	-9675
▁Брат	-9676
▁Риан	-9677
▁авгу	-9678
▁храм	-9679
▁швед	-9680
щением	-9681
▁Moody	-9682
▁Сечин	-9683
▁Токио	-9684
▁Худож	-9685
▁Южная	-9686
▁балло	-9687
▁всего	-9688
▁выяви	-9689
▁духов	-9690
▁заслу	-9691
▁игрок	-9692
▁испор	-9693
▁поспо	-9694
▁пятый	-9695
▁устра	-9696
таньяху	-9697
▁Китаем	-9698
▁Львове	-9699
▁Центра	-9700
▁делега	-9701
▁звание	-9702
▁здании	-9703
▁матчем	-9704
▁ошибки	-9705
▁подзем	-9706
▁пользе	-9707
▁реклам	-9708
▁саудов	-9709
▁флешмо	-9710
Газпрому	-9711
тических	-9712
▁Голливу	-9713
▁Красной	-9714
▁Ульянов	-9715
▁воздуха	-9716
▁выплаты	-9717
▁женской	-9718
▁захвата	-9719
▁снимать	-9720
▁статуса	-9721
▁сыграли	-9722
▁ядерных	-9723
▁Victoria	-9724
▁Донецком	-9725
▁Удмуртии	-9726
▁завоевал	-9727
▁киберата	-9728
▁конститу	-9729
▁принадле	-9730
▁распрода	-9731
▁увеличит	-9732
▁хоккеист	-9733
▁Венесуэле	-9734
▁Нетаньяху	-9735
▁британцев	-9736
▁превратил	-9737
▁продолжит	-9738
▁состояние	-9739
▁Восточного	-9740
▁Макгрегора	-9741
▁возможного	-9742
▁двигателей	-9743
▁публикацию	-9744
▁соглашений	-9745
▁беспилотника	-9746
Ри	-9747
ЭФ	-9748
ell	-9749
Зим	-9750
Пла	-9751
ват	-9752
дца	-9753
оке	-9754
рио	-9755
рка	-9756
ьем	-9757
ько	-9758
▁32	-9759
▁WS	-9760
▁ЦУ	-9761
▁ня	-9762
Кала	-9763
Фран	-9764
вить	-9765
даре	-9766
жечь	-9767
лыми	-9768
мета	-9769
мила	-9770
неве	-9771
нево	-9772
нным	-9773
овок	-9774
чило	-9775
▁MMA	-9776
▁Брэ	-9777
▁Шар	-9778
▁каж	-9779
▁кем	-9780
лянди	-9781
мутся	-9782
ровая	-9783
совал	-9784
▁Bank	-9785
▁Думе	-9786
▁Коса	-9787
▁Мела	-9788
▁ПАСЕ	-9789
▁акци	-9790
римина	-9791
тового	-9792
читься	-9793
▁Андер	-9794
▁Ассан	-9795
▁Киров	-9796
▁Почти	-9797
▁марки	-9798
▁нанес	-9799
▁прися	-9800
▁сфере	-9801
▁трево	-9802
▁цвета	-9803
▁штаба	-9804
▁шутку	-9805
тивного	-9806
▁Василь	-9807
▁Посети	-9808
▁второе	-9809
▁втором	-9810
▁подаст	-9811
▁подчин	-9812
▁проник	-9813
▁сажать	-9814
▁снятия	-9815
▁товари	-9816
▁фигури	-9817
▁Владель	-9818
▁Вратарь	-9819
▁Макрона	-9820
▁Найдено	-9821
▁Николая	-9822
▁Орешкин	-9823
▁Туристы	-9824
▁казнили	-9825
▁костюме	-9826
▁поездов	-9827
▁предъяв	-9828
▁пускать	-9829
▁убитого	-9830
▁Крымский	-9831
▁Пальмиры	-9832
▁аукционе	-9833
▁боевикам	-9834
▁возрасте	-9835
▁концерта	-9836
▁новостей	-9837
▁отказала	-9838
▁ребенком	-9839
▁рейтинга	-9840
▁упрекнул	-9841
▁Спасатели	-9842
▁ближайшие	-9843
▁водителей	-9844
▁выступать	-9845
▁двигатель	-9846
▁знаменито	-9847
▁контракта	-9848
▁максимума	-9849
▁стартовал	-9850
▁Ибрагимови	-9851
▁подготовки	-9852
▁популярным	-9853
▁предприяти	-9854
▁Нидерландах	-9855
▁Ставрополье	-9856
▁согласились	-9857
▁конфедераций	-9858
▁национальной	-9859
▁возобновления	-9860
OS	-9861
Го	-9862
-90	-9863
ran	-9864
Все	-9865
луа	-9866
▁МЮ	-9867
News	-9868
roup	-9869
зинь	-9870
лана	-9871
нано	-9872
тная	-9873
щины	-9874
энер	-9875
▁Ori	-9876
▁	-9877
о	-9878
и	-9879
а	-9880
е	-9881
р	-9882
н	-9883
с	-9884
т	-9885
л	-9886
в	-9887
к	-9888
п	-9889
д	-9890
у	-9891
м	-9892
з	-9893
б	-9894
ы	-9895
я	-9896
г	-9897
й	-9898
ь	-9899
ч	-9900
х	-9901
ж	-9902
ц	-9903
ш	-9904
ю	-9905
С	-9906
В	-9907
П	-9908
Р	-9909
«	-9910
»	-9911
М	-9912
К	-9913
ф	-9914
А	-9915
щ	-9916
-	-9917
Н	-9918
Б	-9919
Д	-9920
Т	-9921
И	-9922
Г	-9923
У	-9924
О	-9925
e	-9926
э	-9927
0	-9928
a	-9929
o	-9930
1	-9931
Ш	-9932
Л	-9933
i	-9934
Ф	-9935
r	-9936
2	-9937
n	-9938
З	-9939
Е	-9940
l	-9941
s	-9942
Ч	-9943
t	-9944
ъ	-9945
5	-9946
Х	-9947
Э	-9948
A	-9949
u	-9950
c	-9951
3	-9952
,	-9953
Ц	-9954
4	-9955
Ж	-9956
Я	-9957
p	-9958
6	-9959
d	-9960
g	-9961
7	-9962
h	-9963
8	-9964
m	-9965
b	-9966
T	-9967
S	-9968
C	-9969
P	-9970
M	-9971
F	-9972
B	-9973
y	-9974
k	-9975
9	-9976
G	-9977
Ю	-9978
I	-9979
W	-9980
D	-9981
R	-9982
L	-9983
N	-9984
w	-9985
.	-9986
—	-9987
f	-9988
H	-9989
V	-9990
O	-9991
E	-9992
x	-9993
Й	-9994
v	-9995
U	-9996
